{
  "version": "1.0",
  "truncation": null,
  "padding": null,
  "added_tokens": [
    {
      "id": 0,
      "content": "<UNK>",
      "single_word": false,
      "lstrip": false,
      "rstrip": false,
      "normalized": false,
      "special": true
    },
    {
      "id": 1,
      "content": "<BOS>",
      "single_word": false,
      "lstrip": false,
      "rstrip": false,
      "normalized": false,
      "special": true
    },
    {
      "id": 2,
      "content": "<EOS>",
      "single_word": false,
      "lstrip": false,
      "rstrip": false,
      "normalized": false,
      "special": true
    },
    {
      "id": 3,
      "content": "<PAD>",
      "single_word": false,
      "lstrip": false,
      "rstrip": false,
      "normalized": false,
      "special": true
    }
  ],
  "normalizer": {
    "type": "Sequence",
    "normalizers": [
      {
        "type": "NFD"
      },
      {
        "type": "Lowercase"
      }
    ]
  },
  "pre_tokenizer": {
    "type": "Whitespace"
  },
  "post_processor": {
    "type": "TemplateProcessing",
    "single": [
      {
        "SpecialToken": {
          "id": "<BOS>",
          "type_id": 0
        }
      },
      {
        "Sequence": {
          "id": "A",
          "type_id": 0
        }
      },
      {
        "SpecialToken": {
          "id": "<EOS>",
          "type_id": 0
        }
      }
    ],
    "pair": [
      {
        "Sequence": {
          "id": "A",
          "type_id": 0
        }
      },
      {
        "Sequence": {
          "id": "B",
          "type_id": 1
        }
      }
    ],
    "special_tokens": {
      "<BOS>": {
        "id": "<BOS>",
        "ids": [
          1
        ],
        "tokens": [
          "<BOS>"
        ]
      },
      "<EOS>": {
        "id": "<EOS>",
        "ids": [
          2
        ],
        "tokens": [
          "<EOS>"
        ]
      }
    }
  },
  "decoder": {
    "type": "WordPiece",
    "prefix": "##",
    "cleanup": true
  },
  "model": {
    "type": "WordPiece",
    "unk_token": "<UNK>",
    "continuing_subword_prefix": "##",
    "max_input_chars_per_word": 100,
    "vocab": {
      "<UNK>": 0,
      "<BOS>": 1,
      "<EOS>": 2,
      "<PAD>": 3,
      "!": 4,
      "\"": 5,
      "#": 6,
      "$": 7,
      "%": 8,
      "&": 9,
      "'": 10,
      "(": 11,
      ")": 12,
      "*": 13,
      "+": 14,
      ",": 15,
      "-": 16,
      ".": 17,
      "/": 18,
      "0": 19,
      "1": 20,
      "2": 21,
      "3": 22,
      "4": 23,
      "5": 24,
      "6": 25,
      "7": 26,
      "8": 27,
      "9": 28,
      ":": 29,
      ";": 30,
      "=": 31,
      "?": 32,
      "@": 33,
      "[": 34,
      "]": 35,
      "^": 36,
      "_": 37,
      "`": 38,
      "a": 39,
      "b": 40,
      "c": 41,
      "d": 42,
      "e": 43,
      "f": 44,
      "g": 45,
      "h": 46,
      "i": 47,
      "j": 48,
      "k": 49,
      "l": 50,
      "m": 51,
      "n": 52,
      "o": 53,
      "p": 54,
      "q": 55,
      "r": 56,
      "s": 57,
      "t": 58,
      "u": 59,
      "v": 60,
      "w": 61,
      "x": 62,
      "y": 63,
      "z": 64,
      "": 65,
      "": 66,
      "": 67,
      "": 68,
      "¡": 69,
      "£": 70,
      "¥": 71,
      "©": 72,
      "«": 73,
      "­": 74,
      "®": 75,
      "°": 76,
      "²": 77,
      "³": 78,
      "´": 79,
      "¶": 80,
      "»": 81,
      "¼": 82,
      "½": 83,
      "¾": 84,
      "×": 85,
      "ß": 86,
      "ø": 87,
      "œ": 88,
      "̀": 89,
      "́": 90,
      "̂": 91,
      "̃": 92,
      "̄": 93,
      "̈": 94,
      "̊": 95,
      "̋": 96,
      "̌": 97,
      "̧": 98,
      "β": 99,
      "а": 100,
      "к": 101,
      "‒": 102,
      "–": 103,
      "—": 104,
      "‘": 105,
      "’": 106,
      "‚": 107,
      "“": 108,
      "”": 109,
      "„": 110,
      "‟": 111,
      "…": 112,
      "‹": 113,
      "›": 114,
      "€": 115,
      "™": 116,
      "♪": 117,
      "♫": 118,
      "你": 119,
      "葱": 120,
      "送": 121,
      "﻿": 122,
      "，": 123,
      "##c": 124,
      "##h": 125,
      "##a": 126,
      "##l": 127,
      "##d": 128,
      "##u": 129,
      "##r": 130,
      "##g": 131,
      "##n": 132,
      "##s": 133,
      "##z": 134,
      "##e": 135,
      "##i": 136,
      "##t": 137,
      "##o": 138,
      "##m": 139,
      "##̈": 140,
      "##b": 141,
      "##k": 142,
      "##w": 143,
      "##f": 144,
      "##ß": 145,
      "##p": 146,
      "##v": 147,
      "##x": 148,
      "##y": 149,
      "##q": 150,
      "##5": 151,
      "##2": 152,
      "##7": 153,
      "##j": 154,
      "##4": 155,
      "##1": 156,
      "##0": 157,
      "##β": 158,
      "##8": 159,
      "##9": 160,
      "##ø": 161,
      "##♫": 162,
      "##6": 163,
      "##3": 164,
      "##.": 165,
      "##!": 166,
      "##\"": 167,
      "##'": 168,
      "##̄": 169,
      "##:": 170,
      "##_": 171,
      "##)": 172,
      "##,": 173,
      "##̊": 174,
      "##́": 175,
      "##‘": 176,
      "##“": 177,
      "##‟": 178,
      "##]": 179,
      "##™": 180,
      "##»": 181,
      "##̀": 182,
      "##;": 183,
      "##?": 184,
      "##”": 185,
      "##—": 186,
      "##@": 187,
      "##-": 188,
      "##‚": 189,
      "##̧": 190,
      "##½": 191,
      "##„": 192,
      "##–": 193,
      "##$": 194,
      "##̌": 195,
      "##=": 196,
      "##…": 197,
      "##̂": 198,
      "###": 199,
      "##&": 200,
      "##̃": 201,
      "##«": 202,
      "##[": 203,
      "##¥": 204,
      "##`": 205,
      "##/": 206,
      "##¶": 207,
      "##你": 208,
      "##葱": 209,
      "##¼": 210,
      "##©": 211,
      "##%": 212,
      "##‹": 213,
      "##̋": 214,
      "##♪": 215,
      "##en": 216,
      "##er": 217,
      "##ch": 218,
      "##ie": 219,
      "##in": 220,
      "##nd": 221,
      "##st": 222,
      "##ich": 223,
      "##as": 224,
      "die": 225,
      "##ei": 226,
      "ein": 227,
      "##te": 228,
      "und": 229,
      "##an": 230,
      "##es": 231,
      "das": 232,
      "##ir": 233,
      "##on": 234,
      "##ü": 235,
      "##ll": 236,
      "##ä": 237,
      "##ar": 238,
      "##ten": 239,
      "##un": 240,
      "##sch": 241,
      "zu": 242,
      "wir": 243,
      "##gen": 244,
      "sie": 245,
      "##hr": 246,
      "in": 247,
      "au": 248,
      "der": 249,
      "ich": 250,
      "##em": 251,
      "##or": 252,
      "##at": 253,
      "##ein": 254,
      "##it": 255,
      "##au": 256,
      "ist": 257,
      "es": 258,
      "##el": 259,
      "##ö": 260,
      "##icht": 261,
      "er": 262,
      "##al": 263,
      "##ge": 264,
      "##ach": 265,
      "##ier": 266,
      "##lich": 267,
      "##ben": 268,
      "##ber": 269,
      "un": 270,
      "ver": 271,
      "##den": 272,
      "##ter": 273,
      "dies": 274,
      "##ur": 275,
      "ge": 276,
      "##de": 277,
      "##ung": 278,
      "be": 279,
      "den": 280,
      "sch": 281,
      "an": 282,
      "al": 283,
      "so": 284,
      "##ig": 285,
      "##ür": 286,
      "##mm": 287,
      "nicht": 288,
      "##nen": 289,
      "##ro": 290,
      "##der": 291,
      "ha": 292,
      "auf": 293,
      "##sen": 294,
      "von": 295,
      "dass": 296,
      "eine": 297,
      "##eit": 298,
      "als": 299,
      "##is": 300,
      "mit": 301,
      "##le": 302,
      "wie": 303,
      "##ck": 304,
      "##ann": 305,
      "##eh": 306,
      "##nder": 307,
      "##et": 308,
      "st": 309,
      "##ion": 310,
      "uns": 311,
      "##eu": 312,
      "##ind": 313,
      "war": 314,
      "##isch": 315,
      "##ra": 316,
      "da": 317,
      "sich": 318,
      "wen": 319,
      "man": 320,
      "##kt": 321,
      "aus": 322,
      "was": 323,
      "um": 324,
      "##ahr": 325,
      "sind": 326,
      "##ft": 327,
      "aber": 328,
      "für": 329,
      "##and": 330,
      "##ön": 331,
      "##ehr": 332,
      "##re": 333,
      "##ol": 334,
      "ü": 335,
      "haben": 336,
      "wenn": 337,
      "##us": 338,
      "##be": 339,
      "##men": 340,
      "##ut": 341,
      "##ag": 342,
      "über": 343,
      "##lle": 344,
      "hat": 345,
      "ges": 346,
      "wer": 347,
      "##tw": 348,
      "##ste": 349,
      "ihr": 350,
      "##iel": 351,
      "##il": 352,
      "mein": 353,
      "kön": 354,
      "##ik": 355,
      "##fen": 356,
      "diese": 357,
      "en": 358,
      "vor": 359,
      "im": 360,
      "##och": 361,
      "wei": 362,
      "##llen": 363,
      "sp": 364,
      "##sten": 365,
      "dem": 366,
      "##ehen": 367,
      "##hl": 368,
      "re": 369,
      "##zen": 370,
      "pro": 371,
      "ar": 372,
      "##am": 373,
      "##um": 374,
      "des": 375,
      "##se": 376,
      "ko": 377,
      "##igen": 378,
      "men": 379,
      "sein": 380,
      "##ern": 381,
      "bei": 382,
      "also": 383,
      "##chen": 384,
      "nach": 385,
      "le": 386,
      "##bt": 387,
      "##mmen": 388,
      "einen": 389,
      "unser": 390,
      "##ru": 391,
      "##etz": 392,
      "##ien": 393,
      "ih": 394,
      "##ieren": 395,
      "wo": 396,
      "oder": 397,
      "##rei": 398,
      "können": 399,
      "##elt": 400,
      "mensch": 401,
      "hier": 402,
      "##iv": 403,
      "jahr": 404,
      "##wei": 405,
      "werden": 406,
      "##sp": 407,
      "##ungen": 408,
      "geh": 409,
      "ander": 410,
      "##zu": 411,
      "##iert": 412,
      "all": 413,
      "##rau": 414,
      "kann": 415,
      "auch": 416,
      "mach": 417,
      "##rü": 418,
      "##ation": 419,
      "##ken": 420,
      "einer": 421,
      "her": 422,
      "dar": 423,
      "##ät": 424,
      "einem": 425,
      "##ne": 426,
      "##scha": 427,
      "kl": 428,
      "nur": 429,
      "##gt": 430,
      "dann": 431,
      "etw": 432,
      "##ige": 433,
      "sehr": 434,
      "je": 435,
      "unter": 436,
      "wird": 437,
      "##om": 438,
      "##aus": 439,
      "##ischen": 440,
      "gen": 441,
      "menschen": 442,
      "gi": 443,
      "##ess": 444,
      "##os": 445,
      "##ör": 446,
      "mich": 447,
      "kon": 448,
      "##cht": 449,
      "kein": 450,
      "--": 451,
      "vie": 452,
      "##ort": 453,
      "gibt": 454,
      "leben": 455,
      "ihnen": 456,
      "sa": 457,
      "wur": 458,
      "##ot": 459,
      "##eil": 460,
      "##issen": 461,
      "gesch": 462,
      "##urch": 463,
      "##ff": 464,
      "##ze": 465,
      "ab": 466,
      "viel": 467,
      "##und": 468,
      "ent": 469,
      "##ffen": 470,
      "##lau": 471,
      "noch": 472,
      "##ill": 473,
      "am": 474,
      "##hal": 475,
      "##eute": 476,
      "sehen": 477,
      "etwas": 478,
      "##ab": 479,
      "dieser": 480,
      "ste": 481,
      "##ing": 482,
      "##äch": 483,
      "durch": 484,
      "##og": 485,
      "##schaft": 486,
      "##ick": 487,
      "##ang": 488,
      "mö": 489,
      "##mmer": 490,
      "##mal": 491,
      "gro": 492,
      "mehr": 493,
      "welt": 494,
      "##bl": 495,
      "mir": 496,
      "habe": 497,
      "##än": 498,
      "##tet": 499,
      "wissen": 500,
      "##bei": 501,
      "##ul": 502,
      "##sa": 503,
      "##00": 504,
      "##heit": 505,
      "mus": 506,
      "##hen": 507,
      "sag": 508,
      "te": 509,
      "##ische": 510,
      "groß": 511,
      "##ers": 512,
      "##lichen": 513,
      "##keit": 514,
      "##uch": 515,
      "alle": 516,
      "##ko": 517,
      "zum": 518,
      "gan": 519,
      "##etzt": 520,
      "einf": 521,
      "we": 522,
      "##her": 523,
      "##tr": 524,
      "wirk": 525,
      "wä": 526,
      "##ank": 527,
      "bes": 528,
      "##we": 529,
      ".\"": 530,
      "##liche": 531,
      "##mit": 532,
      "zwei": 533,
      "##all": 534,
      "ihre": 535,
      "meine": 536,
      "##üs": 537,
      "##hn": 538,
      "##he": 539,
      "wür": 540,
      "fü": 541,
      "weil": 542,
      "zeit": 543,
      "hin": 544,
      "##ass": 545,
      "wurde": 546,
      "wirklich": 547,
      "ber": 548,
      "neu": 549,
      "inter": 550,
      "sel": 551,
      "machen": 552,
      "dieses": 553,
      "##rie": 554,
      "##fü": 555,
      "##rin": 556,
      "##assen": 557,
      "einfach": 558,
      "lie": 559,
      "##pp": 560,
      "gew": 561,
      "immer": 562,
      "##ht": 563,
      "##end": 564,
      "nun": 565,
      "##for": 566,
      "##mp": 567,
      "##ungs": 568,
      "##eln": 569,
      "unsere": 570,
      "verb": 571,
      "fra": 572,
      "##bst": 573,
      "tun": 574,
      "##ndern": 575,
      "##ob": 576,
      "gel": 577,
      "##rück": 578,
      "din": 579,
      "jetzt": 580,
      "##acht": 581,
      "##ad": 582,
      "bis": 583,
      "##chte": 584,
      "bl": 585,
      "##är": 586,
      "##oll": 587,
      "##ist": 588,
      "##bar": 589,
      "gem": 590,
      "##wer": 591,
      "##ekt": 592,
      "ger": 593,
      "##mmt": 594,
      "##ner": 595,
      "fl": 596,
      "##nte": 597,
      "beg": 598,
      "##art": 599,
      "or": 600,
      "##ges": 601,
      "##nde": 602,
      "du": 603,
      "müs": 604,
      "vers": 605,
      "viele": 606,
      "hatte": 607,
      "ä": 608,
      "##iz": 609,
      "keine": 610,
      "##inder": 611,
      "##inden": 612,
      "klein": 613,
      "##fl": 614,
      "gru": 615,
      "##per": 616,
      "##ehmen": 617,
      "denn": 618,
      "mo": 619,
      "##ück": 620,
      "##che": 621,
      "selbst": 622,
      "me": 623,
      "eigen": 624,
      "##leich": 625,
      "schl": 626,
      "##eiten": 627,
      "leute": 628,
      "gr": 629,
      "##ger": 630,
      "ob": 631,
      "##glich": 632,
      "##schie": 633,
      "entw": 634,
      "tat": 635,
      "##ionen": 636,
      "##ichtig": 637,
      "soll": 638,
      "ch": 639,
      "müssen": 640,
      "##stell": 641,
      "eines": 642,
      "##unkt": 643,
      "##hlen": 644,
      "bil": 645,
      "##äu": 646,
      "geb": 647,
      "art": 648,
      "sagen": 649,
      "waren": 650,
      "pl": 651,
      "diesem": 652,
      "##pt": 653,
      "##chn": 654,
      "##ßen": 655,
      "wieder": 656,
      "##ke": 657,
      "pa": 658,
      "diesen": 659,
      "##olog": 660,
      "weiter": 661,
      "alles": 662,
      "dinge": 663,
      "sagte": 664,
      "##gend": 665,
      "glau": 666,
      "andere": 667,
      "jahren": 668,
      "##ri": 669,
      "##ah": 670,
      "teil": 671,
      "bin": 672,
      "##blem": 673,
      "##tel": 674,
      "nie": 675,
      "mal": 676,
      "fr": 677,
      "zei": 678,
      "##kommen": 679,
      "##ster": 680,
      "nat": 681,
      "anderen": 682,
      "##nis": 683,
      "würde": 684,
      "se": 685,
      "##iger": 686,
      "ex": 687,
      "damit": 688,
      "erf": 689,
      "##ver": 690,
      "gl": 691,
      "##unden": 692,
      "##ser": 693,
      "zusa": 694,
      "##me": 695,
      "##geb": 696,
      "##ität": 697,
      "problem": 698,
      "zusammen": 699,
      "##ichte": 700,
      "zur": 701,
      "heraus": 702,
      "vielle": 703,
      "wel": 704,
      "##fä": 705,
      "vielleicht": 706,
      "##angen": 707,
      "##auf": 708,
      "kinder": 709,
      "verst": 710,
      "ind": 711,
      "##tz": 712,
      "##über": 713,
      "ja": 714,
      "##op": 715,
      "##gel": 716,
      "##rit": 717,
      "##zi": 718,
      "ne": 719,
      "zw": 720,
      "wahr": 721,
      "gut": 722,
      "##rä": 723,
      "schw": 724,
      "tats": 725,
      "##auen": 726,
      "mill": 727,
      "best": 728,
      "geht": 729,
      "##tlich": 730,
      "##ment": 731,
      "gleich": 732,
      "##yst": 733,
      "##fe": 734,
      "jahre": 735,
      "##under": 736,
      "zurück": 737,
      "dav": 738,
      "##spiel": 739,
      "##du": 740,
      "##ler": 741,
      "for": 742,
      "dank": 743,
      "##ast": 744,
      "##tes": 745,
      "entwick": 746,
      "##ant": 747,
      "erz": 748,
      "frau": 749,
      "##ystem": 750,
      "##ache": 751,
      "##des": 752,
      "##det": 753,
      "muss": 754,
      "##beit": 755,
      "heute": 756,
      "##inn": 757,
      "ganz": 758,
      "##tern": 759,
      "techn": 760,
      "land": 761,
      "ir": 762,
      "##kl": 763,
      "ö": 764,
      "schon": 765,
      "##ßer": 766,
      "##nten": 767,
      "##ale": 768,
      "##halten": 769,
      "warum": 770,
      "pass": 771,
      "##pf": 772,
      "letz": 773,
      "arbei": 774,
      "##änder": 775,
      "##igkeit": 776,
      "##ell": 777,
      "gegen": 778,
      "##esen": 779,
      "##ächlich": 780,
      "genau": 781,
      "na": 782,
      "drei": 783,
      "spiel": 784,
      "ide": 785,
      "dort": 786,
      "sei": 787,
      "grö": 788,
      "möchte": 789,
      "##esser": 790,
      "einige": 791,
      "##dem": 792,
      "##stellen": 793,
      "gu": 794,
      "##ahl": 795,
      "einz": 796,
      "##off": 797,
      "oh": 798,
      "verl": 799,
      "macht": 800,
      "##ringen": 801,
      "##zie": 802,
      "brau": 803,
      "##ationen": 804,
      "##im": 805,
      "##imm": 806,
      "##ren": 807,
      "davon": 808,
      "##alen": 809,
      "tatsächlich": 810,
      "ben": 811,
      "##aten": 812,
      "verw": 813,
      "tag": 814,
      "jem": 815,
      "hand": 816,
      "möglich": 817,
      "##sam": 818,
      "##schl": 819,
      "##est": 820,
      "bede": 821,
      "##ok": 822,
      "wichtig": 823,
      "##vor": 824,
      "##alt": 825,
      "besch": 826,
      "##fr": 827,
      "stu": 828,
      "##uchen": 829,
      "##rechen": 830,
      "##ug": 831,
      "denken": 832,
      "kam": 833,
      "##ierte": 834,
      "reg": 835,
      "grund": 836,
      "weg": 837,
      "hatten": 838,
      "##utz": 839,
      "##halb": 840,
      "zie": 841,
      "##age": 842,
      "geschichte": 843,
      "paar": 844,
      "bild": 845,
      "##teil": 846,
      "##cken": 847,
      "könnte": 848,
      "##änd": 849,
      "##achte": 850,
      "##kte": 851,
      "aut": 852,
      "##form": 853,
      "arbeit": 854,
      "natür": 855,
      "##ichten": 856,
      "##ater": 857,
      "##mlich": 858,
      "##weise": 859,
      "##aut": 860,
      "ihn": 861,
      "##äl": 862,
      "##att": 863,
      "gehen": 864,
      "wollen": 865,
      "##aum": 866,
      "##wo": 867,
      "##achen": 868,
      "##ün": 869,
      "hei": 870,
      "##ade": 871,
      "##ika": 872,
      "##schen": 873,
      "lei": 874,
      "darüber": 875,
      "##atz": 876,
      "meiner": 877,
      "##äd": 878,
      "##ologie": 879,
      "sicher": 880,
      "pers": 881,
      "woll": 882,
      "mei": 883,
      "##ap": 884,
      "##utzen": 885,
      "##anden": 886,
      "weiß": 887,
      "##ha": 888,
      "beispiel": 889,
      "##gar": 890,
      "##oren": 891,
      "##irn": 892,
      "##ine": 893,
      "jeder": 894,
      "##net": 895,
      "gef": 896,
      "ihren": 897,
      "wurden": 898,
      "##uss": 899,
      "##reich": 900,
      "##hren": 901,
      "kr": 902,
      "werde": 903,
      "besser": 904,
      "vielen": 905,
      "sondern": 906,
      "ph": 907,
      "funkt": 908,
      "komp": 909,
      "seine": 910,
      "will": 911,
      "kommen": 912,
      "##nt": 913,
      "lassen": 914,
      "##für": 915,
      "?\"": 916,
      "##schein": 917,
      "währ": 918,
      "##zeu": 919,
      "##fer": 920,
      "gab": 921,
      "lang": 922,
      "##schieden": 923,
      "wäre": 924,
      "doch": 925,
      "tra": 926,
      "irgend": 927,
      "dazu": 928,
      "spr": 929,
      "sol": 930,
      "med": 931,
      "freu": 932,
      "funktion": 933,
      "erst": 934,
      "wor": 935,
      "##agen": 936,
      "unserer": 937,
      "erzä": 938,
      "##ennen": 939,
      "während": 940,
      "bewe": 941,
      "de": 942,
      "neue": 943,
      "mar": 944,
      "interess": 945,
      "##ativ": 946,
      "natürlich": 947,
      "sogar": 948,
      "gemein": 949,
      "##ander": 950,
      "hät": 951,
      "wasser": 952,
      "zwischen": 953,
      "vom": 954,
      "ersten": 955,
      "frage": 956,
      "nichts": 957,
      "##eich": 958,
      "000": 959,
      "finden": 960,
      "lebens": 961,
      "br": 962,
      "##akt": 963,
      "19": 964,
      "einmal": 965,
      "denke": 966,
      "##achten": 967,
      "##tra": 968,
      "##nehmen": 969,
      "##anz": 970,
      "gerade": 971,
      "to": 972,
      "##mer": 973,
      "betr": 974,
      "fä": 975,
      "##ak": 976,
      "##gie": 977,
      "20": 978,
      "nor": 979,
      "ohne": 980,
      "denen": 981,
      "kur": 982,
      "näch": 983,
      "glaube": 984,
      "ins": 985,
      "##ften": 986,
      "ihrer": 987,
      "ro": 988,
      "pol": 989,
      "schne": 990,
      "##pro": 991,
      "##alten": 992,
      "##gl": 993,
      "geben": 994,
      "qu": 995,
      "##gehen": 996,
      "##zent": 997,
      "wissenschaft": 998,
      "kommt": 999,
      "erw": 1000,
      "gemacht": 1001,
      "##ult": 1002,
      "letzten": 1003,
      "frauen": 1004,
      "dafür": 1005,
      "##chten": 1006,
      "##geben": 1007,
      "lö": 1008,
      "gehirn": 1009,
      "##ierung": 1010,
      "würden": 1011,
      "com": 1012,
      "sta": 1013,
      "##affen": 1014,
      "##ma": 1015,
      "bedeu": 1016,
      "mon": 1017,
      "##schei": 1018,
      "tr": 1019,
      "bi": 1020,
      "##keiten": 1021,
      "##ss": 1022,
      "##ent": 1023,
      "##gew": 1024,
      "verstehen": 1025,
      "zeigen": 1026,
      "##gan": 1027,
      "##zeit": 1028,
      "daten": 1029,
      "##ic": 1030,
      "sieht": 1031,
      "hau": 1032,
      "##hin": 1033,
      "rei": 1034,
      "##tschaft": 1035,
      "##pu": 1036,
      "##ören": 1037,
      "##hem": 1038,
      "fol": 1039,
      "verschieden": 1040,
      "prozent": 1041,
      "##ys": 1042,
      "produ": 1043,
      "meisten": 1044,
      "konnte": 1045,
      "co": 1046,
      "vier": 1047,
      "##pl": 1048,
      "##hrt": 1049,
      "passiert": 1050,
      "##gung": 1051,
      "etwa": 1052,
      "##qu": 1053,
      "##ert": 1054,
      "ged": 1055,
      "stellen": 1056,
      "##ust": 1057,
      "erste": 1058,
      "ok": 1059,
      "millionen": 1060,
      "##cher": 1061,
      "min": 1062,
      "##ikan": 1063,
      "bew": 1064,
      "verg": 1065,
      "beh": 1066,
      "daran": 1067,
      "##enden": 1068,
      "ganze": 1069,
      "fin": 1070,
      "bo": 1071,
      "fragen": 1072,
      "stra": 1073,
      "##immt": 1074,
      "ma": 1075,
      "##ischer": 1076,
      "jemand": 1077,
      "nehmen": 1078,
      "##ahren": 1079,
      "sollte": 1080,
      "##ändern": 1081,
      "10": 1082,
      "system": 1083,
      "##etzen": 1084,
      "kre": 1085,
      "arbeiten": 1086,
      "schnell": 1087,
      "el": 1088,
      "star": 1089,
      "große": 1090,
      "dabei": 1091,
      "sollten": 1092,
      "##ts": 1093,
      "##chs": 1094,
      "##tro": 1095,
      "person": 1096,
      "könnten": 1097,
      "##bs": 1098,
      "##erst": 1099,
      "univ": 1100,
      "##mus": 1101,
      "##ße": 1102,
      "ho": 1103,
      "inform": 1104,
      "plan": 1105,
      "veränder": 1106,
      "##ßt": 1107,
      "idee": 1108,
      "hö": 1109,
      "fall": 1110,
      "meinen": 1111,
      "##id": 1112,
      "##yp": 1113,
      "kör": 1114,
      "amer": 1115,
      "nä": 1116,
      "##jekt": 1117,
      "##ergie": 1118,
      "glück": 1119,
      "##ay": 1120,
      "gest": 1121,
      "##ört": 1122,
      "##iere": 1123,
      "##ange": 1124,
      "raum": 1125,
      "anf": 1126,
      "sprechen": 1127,
      "##aufen": 1128,
      "##ce": 1129,
      "hoch": 1130,
      "##stellt": 1131,
      "geld": 1132,
      "meinem": 1133,
      "##ign": 1134,
      "##üt": 1135,
      "wollte": 1136,
      "##mö": 1137,
      "bek": 1138,
      "##ellen": 1139,
      "##agt": 1140,
      "##ia": 1141,
      "darauf": 1142,
      "##anken": 1143,
      "ziemlich": 1144,
      "bef": 1145,
      "##ite": 1146,
      "##igt": 1147,
      "##los": 1148,
      "dir": 1149,
      "##fte": 1150,
      "son": 1151,
      "##gesch": 1152,
      "##ramm": 1153,
      "seit": 1154,
      "richt": 1155,
      "##schied": 1156,
      "##ide": 1157,
      "##licher": 1158,
      "##ppe": 1159,
      "##ogen": 1160,
      "##ckt": 1161,
      "##ate": 1162,
      "doll": 1163,
      "##innen": 1164,
      "stud": 1165,
      "compu": 1166,
      "su": 1167,
      "bekommen": 1168,
      "##fähr": 1169,
      "sagt": 1170,
      "hel": 1171,
      "dollar": 1172,
      "##ktiv": 1173,
      "bereit": 1174,
      "##gte": 1175,
      "ging": 1176,
      "##lung": 1177,
      "univers": 1178,
      "grü": 1179,
      "außer": 1180,
      "##ker": 1181,
      "lin": 1182,
      "##adt": 1183,
      "ende": 1184,
      "welche": 1185,
      "##eht": 1186,
      "##kun": 1187,
      "##stand": 1188,
      "glauben": 1189,
      "mut": 1190,
      "mann": 1191,
      "##elle": 1192,
      "##twort": 1193,
      "##mals": 1194,
      "##ernen": 1195,
      "eigentlich": 1196,
      "kind": 1197,
      "ung": 1198,
      "danke": 1199,
      "##onder": 1200,
      "##scheinlich": 1201,
      "entschei": 1202,
      "200": 1203,
      "##sicht": 1204,
      "##fühl": 1205,
      "sit": 1206,
      "recht": 1207,
      "##amil": 1208,
      "##olut": 1209,
      "weniger": 1210,
      "män": 1211,
      "##ktur": 1212,
      "organ": 1213,
      "##äng": 1214,
      "##äter": 1215,
      "kleinen": 1216,
      "##no": 1217,
      "##ho": 1218,
      "##laub": 1219,
      "technologie": 1220,
      "##reiben": 1221,
      "##sehen": 1222,
      "sozi": 1223,
      "jeden": 1224,
      "computer": 1225,
      "ange": 1226,
      "versuch": 1227,
      "\".": 1228,
      "##ierten": 1229,
      "##ial": 1230,
      "buch": 1231,
      "dr": 1232,
      "namen": 1233,
      "at": 1234,
      "verk": 1235,
      "fün": 1236,
      "famil": 1237,
      "##br": 1238,
      "##kunft": 1239,
      "##nah": 1240,
      "##nung": 1241,
      "##llt": 1242,
      "lernen": 1243,
      "bed": 1244,
      "energie": 1245,
      "bedeutet": 1246,
      "schön": 1247,
      "gesund": 1248,
      "frü": 1249,
      "ang": 1250,
      "wunder": 1251,
      "unseren": 1252,
      "körper": 1253,
      "##arbei": 1254,
      "schu": 1255,
      "##ett": 1256,
      "großen": 1257,
      "eben": 1258,
      "frei": 1259,
      "schle": 1260,
      "sache": 1261,
      "jedes": 1262,
      "##tete": 1263,
      "kleine": 1264,
      "##isten": 1265,
      "##ält": 1266,
      "##fall": 1267,
      "unge": 1268,
      "##orgen": 1269,
      "wahrscheinlich": 1270,
      "##annt": 1271,
      "fil": 1272,
      "##sst": 1273,
      "komple": 1274,
      "ihm": 1275,
      "erken": 1276,
      "afr": 1277,
      "dachte": 1278,
      "bringen": 1279,
      "##asch": 1280,
      "##ies": 1281,
      "##ard": 1282,
      "##eine": 1283,
      "ele": 1284,
      "##usst": 1285,
      "##äft": 1286,
      "##zt": 1287,
      "ganzen": 1288,
      "ihrem": 1289,
      "voll": 1290,
      "brauchen": 1291,
      "##ga": 1292,
      "##ppen": 1293,
      "##ruck": 1294,
      "offen": 1295,
      "fest": 1296,
      "gesehen": 1297,
      "besonder": 1298,
      "beim": 1299,
      "##ele": 1300,
      "seite": 1301,
      "fünf": 1302,
      "##..": 1303,
      "po": 1304,
      "wirtschaft": 1305,
      "weise": 1306,
      "##nit": 1307,
      "##ieß": 1308,
      "##ald": 1309,
      "schwer": 1310,
      "hinter": 1311,
      "##ucht": 1312,
      "nutzen": 1313,
      "wenig": 1314,
      "##ive": 1315,
      "##achsen": 1316,
      "per": 1317,
      "##raft": 1318,
      "unterschied": 1319,
      "versuchen": 1320,
      "anders": 1321,
      "##io": 1322,
      "gar": 1323,
      "kar": 1324,
      "später": 1325,
      "moment": 1326,
      "lehr": 1327,
      "##ph": 1328,
      "di": 1329,
      "eins": 1330,
      "##are": 1331,
      "hätte": 1332,
      "licht": 1333,
      "stadt": 1334,
      "##ition": 1335,
      "##unter": 1336,
      "schul": 1337,
      "versch": 1338,
      "fast": 1339,
      "hil": 1340,
      "spe": 1341,
      "wohl": 1342,
      "ern": 1343,
      "##ismus": 1344,
      "nein": 1345,
      "##schaften": 1346,
      "ur": 1347,
      "##kten": 1348,
      "mag": 1349,
      "##wir": 1350,
      "##ild": 1351,
      "woch": 1352,
      "irgendw": 1353,
      "par": 1354,
      "tau": 1355,
      "sy": 1356,
      "zukunft": 1357,
      "polit": 1358,
      "gesell": 1359,
      "keinen": 1360,
      "##mittel": 1361,
      "\",": 1362,
      "##essen": 1363,
      "tro": 1364,
      "...": 1365,
      "##rat": 1366,
      "##iges": 1367,
      "unglaub": 1368,
      "chin": 1369,
      "gute": 1370,
      "menge": 1371,
      "form": 1372,
      "komm": 1373,
      "##gru": 1374,
      "ort": 1375,
      "oft": 1376,
      "gesagt": 1377,
      "##halt": 1378,
      "indem": 1379,
      "ster": 1380,
      "gern": 1381,
      "##eist": 1382,
      "##pr": 1383,
      "##stellung": 1384,
      "augen": 1385,
      "##ultur": 1386,
      "##fft": 1387,
      "##klär": 1388,
      "##ernt": 1389,
      "##ingen": 1390,
      "jede": 1391,
      "milli": 1392,
      "leu": 1393,
      "##wohl": 1394,
      "##iss": 1395,
      "ka": 1396,
      "krie": 1397,
      "##nden": 1398,
      "##denken": 1399,
      "kurz": 1400,
      "pat": 1401,
      "##richt": 1402,
      "##leben": 1403,
      "##ütz": 1404,
      "##dern": 1405,
      "##ommen": 1406,
      "essen": 1407,
      "inner": 1408,
      "##hle": 1409,
      "tre": 1410,
      "##iegen": 1411,
      "entde": 1412,
      "natur": 1413,
      "##eten": 1414,
      "musik": 1415,
      "bau": 1416,
      "##gang": 1417,
      "richtig": 1418,
      "schaffen": 1419,
      "aller": 1420,
      "heißt": 1421,
      "konnten": 1422,
      "fot": 1423,
      "##aden": 1424,
      "funktioniert": 1425,
      "##gramm": 1426,
      "erfol": 1427,
      "##uten": 1428,
      "##alität": 1429,
      "verd": 1430,
      "100": 1431,
      "the": 1432,
      "inst": 1433,
      "##sel": 1434,
      "eigenen": 1435,
      "##nisse": 1436,
      "##asse": 1437,
      "##hlt": 1438,
      "gesundheit": 1439,
      "##ord": 1440,
      "verm": 1441,
      "##ruktur": 1442,
      "sah": 1443,
      "##reichen": 1444,
      "normal": 1445,
      "##so": 1446,
      "gra": 1447,
      "haus": 1448,
      "größ": 1449,
      "fäh": 1450,
      "##ief": 1451,
      "met": 1452,
      "milliar": 1453,
      "hal": 1454,
      "##allen": 1455,
      "##ans": 1456,
      "mutter": 1457,
      "##zeich": 1458,
      "schwier": 1459,
      "##reis": 1460,
      "kor": 1461,
      "erde": 1462,
      "internet": 1463,
      "bit": 1464,
      "probleme": 1465,
      "##ium": 1466,
      "rob": 1467,
      "vide": 1468,
      "klar": 1469,
      "vert": 1470,
      "##inner": 1471,
      "##öl": 1472,
      "allen": 1473,
      "##ip": 1474,
      "##kel": 1475,
      "##ähr": 1476,
      "bevor": 1477,
      "eur": 1478,
      "schauen": 1479,
      "helfen": 1480,
      "kü": 1481,
      "##zahl": 1482,
      "liebe": 1483,
      "exper": 1484,
      "lu": 1485,
      "get": 1486,
      "bet": 1487,
      "bel": 1488,
      "fort": 1489,
      "weit": 1490,
      "seiner": 1491,
      "##ott": 1492,
      "sü": 1493,
      "##finden": 1494,
      "lange": 1495,
      "erzählen": 1496,
      "amerikan": 1497,
      "##kon": 1498,
      "##isches": 1499,
      "spielen": 1500,
      "fal": 1501,
      "krank": 1502,
      "##volut": 1503,
      "##dent": 1504,
      "manch": 1505,
      "##atur": 1506,
      "prä": 1507,
      "##stoff": 1508,
      "herum": 1509,
      "unternehmen": 1510,
      "neuen": 1511,
      "ungefähr": 1512,
      "kultur": 1513,
      "##od": 1514,
      "erklär": 1515,
      "genug": 1516,
      "nächsten": 1517,
      "hoff": 1518,
      "##hol": 1519,
      "##onen": 1520,
      "kennen": 1521,
      "ru": 1522,
      "##hau": 1523,
      "organis": 1524,
      "##ks": 1525,
      "darum": 1526,
      "projekt": 1527,
      "zeigt": 1528,
      "mater": 1529,
      "##heiten": 1530,
      "##ahlen": 1531,
      "erfolg": 1532,
      "##ünst": 1533,
      "##kr": 1534,
      "unserem": 1535,
      "elekt": 1536,
      "50": 1537,
      "größer": 1538,
      "wus": 1539,
      "blei": 1540,
      "30": 1541,
      "bür": 1542,
      "manchmal": 1543,
      "usa": 1544,
      "##fel": 1545,
      "##öt": 1546,
      "15": 1547,
      "nah": 1548,
      "##eut": 1549,
      "##volution": 1550,
      "führ": 1551,
      "bauen": 1552,
      "##unst": 1553,
      "bem": 1554,
      "design": 1555,
      "##ahrung": 1556,
      "überall": 1557,
      "##undert": 1558,
      "##ere": 1559,
      "begann": 1560,
      "##welt": 1561,
      "##eile": 1562,
      "##land": 1563,
      "statt": 1564,
      "ted": 1565,
      "patien": 1566,
      "##eren": 1567,
      "verhalten": 1568,
      "okay": 1569,
      "##na": 1570,
      "##alis": 1571,
      "feh": 1572,
      "glob": 1573,
      "new": 1574,
      "he": 1575,
      "mode": 1576,
      "##raum": 1577,
      "forsch": 1578,
      "kunst": 1579,
      "##ogra": 1580,
      "gesellschaft": 1581,
      "##zess": 1582,
      "wert": 1583,
      "##ständ": 1584,
      "niem": 1585,
      "##racht": 1586,
      "kopf": 1587,
      "##mente": 1588,
      "abs": 1589,
      "pu": 1590,
      "ähn": 1591,
      "stand": 1592,
      "liegt": 1593,
      "bisschen": 1594,
      "euch": 1595,
      "##forder": 1596,
      "##our": 1597,
      "planeten": 1598,
      "bü": 1599,
      "##liches": 1600,
      "reden": 1601,
      "ideen": 1602,
      "kontro": 1603,
      "schule": 1604,
      "##legen": 1605,
      "##euer": 1606,
      "erinner": 1607,
      "verh": 1608,
      "leuten": 1609,
      "##str": 1610,
      "##igkeiten": 1611,
      "deshalb": 1612,
      "gener": 1613,
      "seinen": 1614,
      "behand": 1615,
      "einzel": 1616,
      "stehen": 1617,
      "##bo": 1618,
      "großart": 1619,
      "##zeug": 1620,
      "##iker": 1621,
      "##ritt": 1622,
      "li": 1623,
      "##ktion": 1624,
      "##ffe": 1625,
      "##äche": 1626,
      "verändern": 1627,
      "gesam": 1628,
      "##ießen": 1629,
      "informationen": 1630,
      "netz": 1631,
      "punkt": 1632,
      "##asst": 1633,
      "##ädchen": 1634,
      "##iele": 1635,
      "inte": 1636,
      "schein": 1637,
      "anst": 1638,
      "##unde": 1639,
      "nennen": 1640,
      "pr": 1641,
      "##ieht": 1642,
      "##llig": 1643,
      "aktiv": 1644,
      "##sy": 1645,
      "##sche": 1646,
      "sagten": 1647,
      "verein": 1648,
      "arten": 1649,
      "rück": 1650,
      "ausge": 1651,
      "##zentr": 1652,
      "dich": 1653,
      "los": 1654,
      "##utzt": 1655,
      "far": 1656,
      "ober": 1657,
      "sinn": 1658,
      "bewusst": 1659,
      "gehört": 1660,
      "milliarden": 1661,
      "##glichen": 1662,
      "drit": 1663,
      "##ringt": 1664,
      "ca": 1665,
      "mat": 1666,
      "hören": 1667,
      "öffen": 1668,
      "männer": 1669,
      "##dig": 1670,
      "antwort": 1671,
      "sechs": 1672,
      "wi": 1673,
      "besonders": 1674,
      "mädchen": 1675,
      "##dr": 1676,
      "gebäu": 1677,
      "##auer": 1678,
      "anderes": 1679,
      "musste": 1680,
      "##fol": 1681,
      "erh": 1682,
      "##enz": 1683,
      "##immen": 1684,
      "herz": 1685,
      "bereits": 1686,
      "##ens": 1687,
      "bezie": 1688,
      "jahrh": 1689,
      "lös": 1690,
      "geschichten": 1691,
      "bas": 1692,
      "oben": 1693,
      "##lichkeit": 1694,
      "ans": 1695,
      "afrika": 1696,
      "arm": 1697,
      "film": 1698,
      "##änger": 1699,
      "##cke": 1700,
      "##izin": 1701,
      "##zept": 1702,
      "interessan": 1703,
      "halten": 1704,
      "##th": 1705,
      "##ome": 1706,
      "universum": 1707,
      "##fin": 1708,
      "erreichen": 1709,
      "fu": 1710,
      "##je": 1711,
      "erkennen": 1712,
      "##bringen": 1713,
      "niemand": 1714,
      "do": 1715,
      "##ienen": 1716,
      "hätten": 1717,
      "gefühl": 1718,
      "minuten": 1719,
      "is": 1720,
      "städ": 1721,
      "freund": 1722,
      "auto": 1723,
      "darin": 1724,
      "##andel": 1725,
      "entwickelt": 1726,
      "rel": 1727,
      "namens": 1728,
      "##einander": 1729,
      "##gem": 1730,
      "verschiedene": 1731,
      "typ": 1732,
      "##twor": 1733,
      "steht": 1734,
      "inv": 1735,
      "##zus": 1736,
      "##voll": 1737,
      "alt": 1738,
      "benutzen": 1739,
      "##mo": 1740,
      "familie": 1741,
      "nu": 1742,
      "##tlichen": 1743,
      "##schnit": 1744,
      "##öhn": 1745,
      "anzu": 1746,
      "unters": 1747,
      "them": 1748,
      "##zei": 1749,
      "bestimm": 1750,
      "##gs": 1751,
      "beob": 1752,
      "res": 1753,
      "programm": 1754,
      "veran": 1755,
      "fir": 1756,
      "##lo": 1757,
      "phys": 1758,
      "gruppe": 1759,
      "gerne": 1760,
      "seinem": 1761,
      "stunden": 1762,
      "robo": 1763,
      "dan": 1764,
      "##äre": 1765,
      "stück": 1766,
      "##gr": 1767,
      "##ib": 1768,
      "video": 1769,
      "vö": 1770,
      "##druck": 1771,
      "teilen": 1772,
      "indien": 1773,
      "ant": 1774,
      "entscheid": 1775,
      "str": 1776,
      "beein": 1777,
      "machte": 1778,
      "##inen": 1779,
      "##annte": 1780,
      "##indung": 1781,
      "##kommt": 1782,
      "eff": 1783,
      "##grund": 1784,
      "##rieben": 1785,
      "flug": 1786,
      "folgen": 1787,
      "kap": 1788,
      "##endet": 1789,
      "entf": 1790,
      "mik": 1791,
      "angst": 1792,
      "irgendwie": 1793,
      "mittel": 1794,
      "##gten": 1795,
      "##ennt": 1796,
      "bilder": 1797,
      "haupt": 1798,
      "masch": 1799,
      "komplex": 1800,
      "wegen": 1801,
      "patienten": 1802,
      "##anzen": 1803,
      "kosten": 1804,
      "##aun": 1805,
      "gewalt": 1806,
      "ziel": 1807,
      "##akter": 1808,
      "ergeb": 1809,
      "##erv": 1810,
      "besten": 1811,
      "innerhalb": 1812,
      "##system": 1813,
      "experi": 1814,
      "emp": 1815,
      "##if": 1816,
      "##ock": 1817,
      "##ände": 1818,
      "jedem": 1819,
      "jun": 1820,
      "##arten": 1821,
      "##ieb": 1822,
      "arch": 1823,
      "braucht": 1824,
      "stell": 1825,
      "medizin": 1826,
      "##itz": 1827,
      "##gestellt": 1828,
      "##ings": 1829,
      "bereich": 1830,
      "part": 1831,
      "##richten": 1832,
      "##bare": 1833,
      "eltern": 1834,
      "##ölker": 1835,
      "bemer": 1836,
      "ries": 1837,
      "luft": 1838,
      "künst": 1839,
      "##zin": 1840,
      "##ohn": 1841,
      "##ießlich": 1842,
      "beginn": 1843,
      "daher": 1844,
      "einzige": 1845,
      "##fra": 1846,
      "gott": 1847,
      "vorstellen": 1848,
      "##rom": 1849,
      "vorher": 1850,
      "sprache": 1851,
      "##ützen": 1852,
      "dis": 1853,
      "##neh": 1854,
      "##bild": 1855,
      "##ahn": 1856,
      "anw": 1857,
      "##hung": 1858,
      "entst": 1859,
      "regierung": 1860,
      "##ume": 1861,
      "kn": 1862,
      "dein": 1863,
      "bewegen": 1864,
      "treffen": 1865,
      "chr": 1866,
      "kä": 1867,
      "schwar": 1868,
      "##sych": 1869,
      "##führt": 1870,
      "obwohl": 1871,
      "bitte": 1872,
      "lä": 1873,
      "##punkt": 1874,
      "nämlich": 1875,
      "elektr": 1876,
      "##gal": 1877,
      "erhalten": 1878,
      "##ehe": 1879,
      "##ätz": 1880,
      "roboter": 1881,
      "vater": 1882,
      "##ächt": 1883,
      "entwickeln": 1884,
      "nation": 1885,
      "einigen": 1886,
      "möglichkeit": 1887,
      "em": 1888,
      "##anten": 1889,
      "welch": 1890,
      "##genommen": 1891,
      "wort": 1892,
      "gleiche": 1893,
      "pos": 1894,
      "reich": 1895,
      "fern": 1896,
      "rest": 1897,
      "beiden": 1898,
      "unterst": 1899,
      "drau": 1900,
      "ak": 1901,
      "verschiedenen": 1902,
      "umwelt": 1903,
      "##iken": 1904,
      "beginnen": 1905,
      "##uster": 1906,
      "##annen": 1907,
      "ändern": 1908,
      "vir": 1909,
      "führen": 1910,
      "##ile": 1911,
      "erle": 1912,
      "wollten": 1913,
      "damals": 1914,
      "##haupt": 1915,
      "sk": 1916,
      "weltw": 1917,
      "unglaublich": 1918,
      "fahr": 1919,
      "##okrat": 1920,
      "tausen": 1921,
      "##tens": 1922,
      "spezie": 1923,
      "##esse": 1924,
      "wesen": 1925,
      "##zieren": 1926,
      "meer": 1927,
      "##äten": 1928,
      "##trag": 1929,
      "yor": 1930,
      "##werk": 1931,
      "jen": 1932,
      "zahl": 1933,
      "##omen": 1934,
      "eher": 1935,
      "zeh": 1936,
      "##one": 1937,
      "neur": 1938,
      "##sw": 1939,
      "unbe": 1940,
      "hause": 1941,
      "trotz": 1942,
      "sachen": 1943,
      "##kü": 1944,
      "mikro": 1945,
      "krebs": 1946,
      "pf": 1947,
      "gesicht": 1948,
      "##blik": 1949,
      "psych": 1950,
      "no": 1951,
      "##ont": 1952,
      "engl": 1953,
      "är": 1954,
      "kommun": 1955,
      "material": 1956,
      "la": 1957,
      "##bes": 1958,
      "prof": 1959,
      "verwenden": 1960,
      "sage": 1961,
      "persön": 1962,
      "verändert": 1963,
      "win": 1964,
      "schau": 1965,
      "##ed": 1966,
      "china": 1967,
      "gebäude": 1968,
      "##lei": 1969,
      "struktur": 1970,
      "anfang": 1971,
      "länder": 1972,
      "##ieben": 1973,
      "schwe": 1974,
      "##zustellen": 1975,
      "##erweise": 1976,
      "aufga": 1977,
      "überhaupt": 1978,
      "menschlichen": 1979,
      "herausforder": 1980,
      "fand": 1981,
      "##hlte": 1982,
      "bab": 1983,
      "stimm": 1984,
      "morgen": 1985,
      "##teten": 1986,
      "werk": 1987,
      "kindern": 1988,
      "sau": 1989,
      "##hm": 1990,
      "##ielt": 1991,
      "lab": 1992,
      "verfü": 1993,
      "schreiben": 1994,
      "pfl": 1995,
      "tut": 1996,
      "##häng": 1997,
      "erzeu": 1998,
      "##entr": 1999,
      "tier": 2000,
      "mil": 2001,
      "##ud": 2002,
      "erstaun": 2003,
      "##möglich": 2004,
      "neben": 2005,
      "zwar": 2006,
      "##ustrie": 2007,
      "getan": 2008,
      "##icken": 2009,
      "mot": 2010,
      "##eig": 2011,
      "##onnen": 2012,
      "berü": 2013,
      "##nov": 2014,
      "##hnen": 2015,
      "##denten": 2016,
      "##reifen": 2017,
      "innov": 2018,
      "verschw": 2019,
      "technolog": 2020,
      "solche": 2021,
      "jed": 2022,
      "invest": 2023,
      "kat": 2024,
      "gleichen": 2025,
      "direkt": 2026,
      "18": 2027,
      "kont": 2028,
      "wochen": 2029,
      "##ase": 2030,
      "##igten": 2031,
      "allem": 2032,
      "geschäft": 2033,
      "versucht": 2034,
      "entwicklung": 2035,
      "sicht": 2036,
      "aufge": 2037,
      "##err": 2038,
      "##ös": 2039,
      "##als": 2040,
      "##zug": 2041,
      "lage": 2042,
      "zeich": 2043,
      "##völker": 2044,
      "prozess": 2045,
      "publik": 2046,
      "40": 2047,
      "##mb": 2048,
      "end": 2049,
      "erscha": 2050,
      "##ingt": 2051,
      "##eim": 2052,
      "erre": 2053,
      "##hemat": 2054,
      "##äus": 2055,
      "chem": 2056,
      "letzte": 2057,
      "fa": 2058,
      "##ian": 2059,
      "##ative": 2060,
      "jedoch": 2061,
      "fing": 2062,
      "zun": 2063,
      "vis": 2064,
      "lehrer": 2065,
      "##han": 2066,
      "ris": 2067,
      "alter": 2068,
      "##etten": 2069,
      "nachdem": 2070,
      "falsch": 2071,
      "beste": 2072,
      "gemeinsam": 2073,
      "nächste": 2074,
      "rad": 2075,
      "##orie": 2076,
      "meines": 2077,
      "##ängt": 2078,
      "##tt": 2079,
      "##ansp": 2080,
      "##nahme": 2081,
      "kamen": 2082,
      "##lt": 2083,
      "erfahrung": 2084,
      "##ient": 2085,
      "weitere": 2086,
      "bedeut": 2087,
      "leicht": 2088,
      "mussten": 2089,
      "europ": 2090,
      "lo": 2091,
      "fühlen": 2092,
      "junge": 2093,
      "mathemat": 2094,
      "tiere": 2095,
      "##haus": 2096,
      "unten": 2097,
      "##sent": 2098,
      "betrachten": 2099,
      "##lin": 2100,
      "samm": 2101,
      "##fläche": 2102,
      "publikum": 2103,
      "##achst": 2104,
      "klim": 2105,
      "tö": 2106,
      "##auso": 2107,
      "##baren": 2108,
      "sex": 2109,
      "modell": 2110,
      "##stra": 2111,
      "##gegen": 2112,
      "wusste": 2113,
      "sicherheit": 2114,
      "freunde": 2115,
      "12": 2116,
      "zentr": 2117,
      "##ute": 2118,
      "dingen": 2119,
      "situ": 2120,
      "bein": 2121,
      "on": 2122,
      "##fahren": 2123,
      "tages": 2124,
      "go": 2125,
      "##tliche": 2126,
      "##vo": 2127,
      "##enzen": 2128,
      "demokrat": 2129,
      "genauso": 2130,
      "##innern": 2131,
      "überr": 2132,
      "schließlich": 2133,
      "vertrau": 2134,
      "bill": 2135,
      "platz": 2136,
      "öl": 2137,
      "##sta": 2138,
      "##kraft": 2139,
      "menschliche": 2140,
      "hol": 2141,
      "##urs": 2142,
      "dun": 2143,
      "such": 2144,
      "##eid": 2145,
      "##zellen": 2146,
      "sow": 2147,
      "##rieb": 2148,
      "##führ": 2149,
      "erinnern": 2150,
      "##hne": 2151,
      "##bte": 2152,
      "##enne": 2153,
      "süd": 2154,
      "gele": 2155,
      "##wert": 2156,
      "##arbeit": 2157,
      "##sein": 2158,
      "sieben": 2159,
      "##ötz": 2160,
      "har": 2161,
      "##els": 2162,
      "gesetz": 2163,
      "entscheiden": 2164,
      "bru": 2165,
      "mer": 2166,
      "deren": 2167,
      "gedanken": 2168,
      "##achstum": 2169,
      "suchen": 2170,
      "##iet": 2171,
      "##annten": 2172,
      "wären": 2173,
      "grunde": 2174,
      "kraft": 2175,
      "lesen": 2176,
      "##ital": 2177,
      "##ations": 2178,
      "danach": 2179,
      "##ala": 2180,
      "plötz": 2181,
      "leiden": 2182,
      "ansch": 2183,
      "manche": 2184,
      "##rieden": 2185,
      "gol": 2186,
      "##orden": 2187,
      "##führen": 2188,
      "eigene": 2189,
      "markt": 2190,
      "bringt": 2191,
      "pra": 2192,
      "tief": 2193,
      "##lungs": 2194,
      "##ager": 2195,
      "pap": 2196,
      "sek": 2197,
      "gemeinschaft": 2198,
      "archite": 2199,
      "lässt": 2200,
      "jungen": 2201,
      "##chter": 2202,
      "mor": 2203,
      "york": 2204,
      "blau": 2205,
      "erlau": 2206,
      "hervor": 2207,
      "worden": 2208,
      "boden": 2209,
      "wider": 2210,
      "fas": 2211,
      "aufzu": 2212,
      "##nahmen": 2213,
      "völlig": 2214,
      "eis": 2215,
      "##eigen": 2216,
      "##lligen": 2217,
      "zahlen": 2218,
      "zuerst": 2219,
      "##sph": 2220,
      "möglichkeiten": 2221,
      "25": 2222,
      "übr": 2223,
      "##eite": 2224,
      "prin": 2225,
      "exist": 2226,
      "hilfe": 2227,
      "##uren": 2228,
      "team": 2229,
      "##izieren": 2230,
      "##elte": 2231,
      "scha": 2232,
      "kranken": 2233,
      "##min": 2234,
      "##kehr": 2235,
      "umgeb": 2236,
      "bleiben": 2237,
      "##aren": 2238,
      "char": 2239,
      "priv": 2240,
      "wicht": 2241,
      "job": 2242,
      "##len": 2243,
      "##aschen": 2244,
      "sollen": 2245,
      "stellt": 2246,
      "zweite": 2247,
      "lösen": 2248,
      "sterben": 2249,
      "ehr": 2250,
      "##indet": 2251,
      "kolle": 2252,
      "äl": 2253,
      "oze": 2254,
      "##reten": 2255,
      "konzentr": 2256,
      "##haft": 2257,
      "staaten": 2258,
      "thema": 2259,
      "lern": 2260,
      "##achtet": 2261,
      "##sichtlich": 2262,
      "funktionieren": 2263,
      "##elbe": 2264,
      "blut": 2265,
      "interessant": 2266,
      "woche": 2267,
      "welches": 2268,
      "##tem": 2269,
      "##drück": 2270,
      "fragte": 2271,
      "hast": 2272,
      "##spro": 2273,
      "fliegen": 2274,
      "##iff": 2275,
      "##bauen": 2276,
      "##cker": 2277,
      "##wirk": 2278,
      "acht": 2279,
      "verbunden": 2280,
      "##iziert": 2281,
      "##zip": 2282,
      "besteht": 2283,
      "guten": 2284,
      "männ": 2285,
      "geist": 2286,
      "plötzlich": 2287,
      "laufen": 2288,
      "dessen": 2289,
      "monate": 2290,
      "tage": 2291,
      "zerst": 2292,
      "##bau": 2293,
      "auszu": 2294,
      "##blick": 2295,
      "verantwort": 2296,
      "##bung": 2297,
      "##wär": 2298,
      "##xt": 2299,
      "zuvor": 2300,
      "defin": 2301,
      "##falls": 2302,
      "hör": 2303,
      "##ure": 2304,
      "extr": 2305,
      "##cen": 2306,
      "##fort": 2307,
      "bewegung": 2308,
      "vergleich": 2309,
      "krieg": 2310,
      "##hören": 2311,
      "änder": 2312,
      "schwierig": 2313,
      "##ograf": 2314,
      "##setzen": 2315,
      "zug": 2316,
      "lösung": 2317,
      "zellen": 2318,
      "##bel": 2319,
      "##scht": 2320,
      "bro": 2321,
      "##pen": 2322,
      "##aler": 2323,
      "stat": 2324,
      "langsam": 2325,
      "falls": 2326,
      "aben": 2327,
      "familien": 2328,
      "labor": 2329,
      "nacht": 2330,
      "medika": 2331,
      "ad": 2332,
      "ländern": 2333,
      "überzeu": 2334,
      "##yn": 2335,
      "##ächst": 2336,
      "relig": 2337,
      "antwor": 2338,
      "beru": 2339,
      "##licht": 2340,
      "##durch": 2341,
      "##arbeitet": 2342,
      "zer": 2343,
      "test": 2344,
      "neues": 2345,
      "benöt": 2346,
      "ermö": 2347,
      "überw": 2348,
      "##riff": 2349,
      "sprach": 2350,
      "extrem": 2351,
      "trä": 2352,
      "wahl": 2353,
      "aussehen": 2354,
      "rep": 2355,
      "führt": 2356,
      "stär": 2357,
      "autos": 2358,
      "##zeigt": 2359,
      "zehn": 2360,
      "daraus": 2361,
      "##eilen": 2362,
      "gefunden": 2363,
      "##merk": 2364,
      "##itze": 2365,
      "##alien": 2366,
      "geg": 2367,
      "unseres": 2368,
      "größten": 2369,
      "kaufen": 2370,
      "stelle": 2371,
      "blick": 2372,
      "egal": 2373,
      "rein": 2374,
      "##igung": 2375,
      "kreativ": 2376,
      "bürger": 2377,
      "sin": 2378,
      "##man": 2379,
      "transp": 2380,
      "opt": 2381,
      "##mat": 2382,
      "##weisen": 2383,
      "##äuf": 2384,
      "größte": 2385,
      "draußen": 2386,
      "##satz": 2387,
      "##itzen": 2388,
      "wissenschaftler": 2389,
      "fähigkeit": 2390,
      "##ieten": 2391,
      "beschäft": 2392,
      "stark": 2393,
      "##lossen": 2394,
      "bist": 2395,
      "##vers": 2396,
      "##spiele": 2397,
      "##gefühl": 2398,
      "gegenüber": 2399,
      "erschaffen": 2400,
      "dro": 2401,
      "kal": 2402,
      "##inde": 2403,
      "##ance": 2404,
      "anderer": 2405,
      "scheint": 2406,
      "fant": 2407,
      "mite": 2408,
      "##zogen": 2409,
      "##fangen": 2410,
      "erk": 2411,
      "##aktion": 2412,
      "ju": 2413,
      "##co": 2414,
      "##letz": 2415,
      "intelligen": 2416,
      "beeinfl": 2417,
      "##ieg": 2418,
      "##ziehen": 2419,
      "anal": 2420,
      "##iven": 2421,
      "verwand": 2422,
      "##jekte": 2423,
      "studenten": 2424,
      "glücklich": 2425,
      "ozean": 2426,
      "mitein": 2427,
      "ihres": 2428,
      "herauszu": 2429,
      "60": 2430,
      "nutz": 2431,
      "bevölker": 2432,
      "##ivi": 2433,
      "##spir": 2434,
      "allein": 2435,
      "##zeuge": 2436,
      "entdeck": 2437,
      "lau": 2438,
      "##setz": 2439,
      "##öffen": 2440,
      "##reck": 2441,
      "##samkeit": 2442,
      "hü": 2443,
      "##ätze": 2444,
      "##oss": 2445,
      "instit": 2446,
      "spa": 2447,
      "medien": 2448,
      "super": 2449,
      "ident": 2450,
      "zä": 2451,
      "##line": 2452,
      "##gliche": 2453,
      "##ve": 2454,
      "möchten": 2455,
      "##fäh": 2456,
      "miss": 2457,
      "muster": 2458,
      "tele": 2459,
      "##auft": 2460,
      "beide": 2461,
      "##spr": 2462,
      "##prochen": 2463,
      "##dlich": 2464,
      "##atten": 2465,
      "##äuft": 2466,
      "klima": 2467,
      "##zü": 2468,
      "nahm": 2469,
      "kontroll": 2470,
      "stimme": 2471,
      "wachsen": 2472,
      "##tau": 2473,
      "schritt": 2474,
      "##ise": 2475,
      "##reiten": 2476,
      "metho": 2477,
      "##zw": 2478,
      "##alter": 2479,
      "mole": 2480,
      "##ware": 2481,
      "durchschnit": 2482,
      "hinein": 2483,
      "gelernt": 2484,
      "##tragen": 2485,
      "nimmt": 2486,
      "##fahr": 2487,
      "erd": 2488,
      "veröffen": 2489,
      "verbindung": 2490,
      "technik": 2491,
      "bar": 2492,
      "einge": 2493,
      "öff": 2494,
      "vergangen": 2495,
      "##ity": 2496,
      "mitt": 2497,
      "gewesen": 2498,
      "früher": 2499,
      "anstatt": 2500,
      "technologien": 2501,
      "80": 2502,
      "sehe": 2503,
      "##jen": 2504,
      "fanden": 2505,
      "tem": 2506,
      "##agieren": 2507,
      "##weg": 2508,
      "##gesetzt": 2509,
      "##lassen": 2510,
      "##ja": 2511,
      "überleben": 2512,
      "schla": 2513,
      "##iko": 2514,
      "passieren": 2515,
      "erklären": 2516,
      "##di": 2517,
      "##sm": 2518,
      "wahrheit": 2519,
      "trad": 2520,
      "ding": 2521,
      "sc": 2522,
      "##eister": 2523,
      "reihe": 2524,
      "disk": 2525,
      "länger": 2526,
      "##zeitig": 2527,
      "effekt": 2528,
      "sofort": 2529,
      "herr": 2530,
      "preis": 2531,
      "krankheit": 2532,
      "verrück": 2533,
      "nachdenken": 2534,
      "jahrhundert": 2535,
      "##sätz": 2536,
      "schlecht": 2537,
      "experiment": 2538,
      "miteinander": 2539,
      "evolution": 2540,
      "##aur": 2541,
      "##elten": 2542,
      "ersch": 2543,
      "mache": 2544,
      "gebaut": 2545,
      "tatsache": 2546,
      "##immer": 2547,
      "hinaus": 2548,
      "jemals": 2549,
      "raus": 2550,
      "inspir": 2551,
      "##ore": 2552,
      "geworden": 2553,
      "##gewöhn": 2554,
      "heu": 2555,
      "##uell": 2556,
      "staat": 2557,
      "##ese": 2558,
      "kleiner": 2559,
      "richtung": 2560,
      "##gessen": 2561,
      "##älfte": 2562,
      "fert": 2563,
      "wör": 2564,
      "##ende": 2565,
      "##rift": 2566,
      "posit": 2567,
      "##zeh": 2568,
      "##itäten": 2569,
      "einfl": 2570,
      "kamer": 2571,
      "mü": 2572,
      "anzahl": 2573,
      "kleines": 2574,
      "indivi": 2575,
      "verloren": 2576,
      "anfangen": 2577,
      "beginnt": 2578,
      "##ochen": 2579,
      "fe": 2580,
      "tie": 2581,
      "##let": 2582,
      "regel": 2583,
      "revolution": 2584,
      "##reibt": 2585,
      "reise": 2586,
      "individu": 2587,
      "##uelle": 2588,
      "findet": 2589,
      "app": 2590,
      "teile": 2591,
      "erfor": 2592,
      "gefähr": 2593,
      "fuß": 2594,
      "dig": 2595,
      "##get": 2596,
      "auss": 2597,
      "##ossen": 2598,
      "intern": 2599,
      "kan": 2600,
      "##äss": 2601,
      "##ement": 2602,
      "nord": 2603,
      "maß": 2604,
      "links": 2605,
      "##gemein": 2606,
      "schü": 2607,
      "aufre": 2608,
      "stimmt": 2609,
      "moder": 2610,
      "sonnen": 2611,
      "situation": 2612,
      "##ument": 2613,
      "##lauf": 2614,
      "künstler": 2615,
      "##chan": 2616,
      "##ins": 2617,
      "##äß": 2618,
      "niemals": 2619,
      "ernst": 2620,
      "jähr": 2621,
      "nerv": 2622,
      "fel": 2623,
      "##ängen": 2624,
      "städte": 2625,
      "aufgabe": 2626,
      "gezeigt": 2627,
      "##mens": 2628,
      "älter": 2629,
      "akt": 2630,
      "schrieb": 2631,
      "##wissen": 2632,
      "##pfen": 2633,
      "##weis": 2634,
      "##wegen": 2635,
      "bildung": 2636,
      "##bten": 2637,
      "##ator": 2638,
      "aufmerk": 2639,
      "lieben": 2640,
      "industrie": 2641,
      "soziale": 2642,
      "foto": 2643,
      "fortsch": 2644,
      "forschung": 2645,
      "umgebung": 2646,
      "fahren": 2647,
      "##ack": 2648,
      "##wass": 2649,
      "##stet": 2650,
      "stellte": 2651,
      "prinzip": 2652,
      "rau": 2653,
      "studie": 2654,
      "ta": 2655,
      "toll": 2656,
      "##si": 2657,
      "##spekt": 2658,
      "rolle": 2659,
      "straßen": 2660,
      "sonst": 2661,
      "tür": 2662,
      "bekommt": 2663,
      "alten": 2664,
      "##itel": 2665,
      "##fon": 2666,
      "##unkte": 2667,
      "höher": 2668,
      "##mar": 2669,
      "##ka": 2670,
      "veränderung": 2671,
      "vorstellung": 2672,
      "genannt": 2673,
      "weltweit": 2674,
      "mitte": 2675,
      "größe": 2676,
      "entfernt": 2677,
      "druck": 2678,
      "fisch": 2679,
      "us": 2680,
      "##mut": 2681,
      "##hungen": 2682,
      "mögen": 2683,
      "##änge": 2684,
      "finanz": 2685,
      "richtige": 2686,
      "fehler": 2687,
      "bedeutung": 2688,
      "internation": 2689,
      "##ct": 2690,
      "realität": 2691,
      "verwendet": 2692,
      "maschine": 2693,
      "faszin": 2694,
      "kil": 2695,
      "entwicklungs": 2696,
      "##mme": 2697,
      "gesp": 2698,
      "hälfte": 2699,
      "lok": 2700,
      "pri": 2701,
      "benutzt": 2702,
      "##eiden": 2703,
      "##sprechen": 2704,
      "##sagen": 2705,
      "dna": 2706,
      "##iten": 2707,
      "##pe": 2708,
      "gegeben": 2709,
      "ständ": 2710,
      "nachzu": 2711,
      "formen": 2712,
      "jemanden": 2713,
      "##rop": 2714,
      "##troffen": 2715,
      "bekannt": 2716,
      "herausforderung": 2717,
      "goog": 2718,
      ".“": 2719,
      "##zte": 2720,
      "##imp": 2721,
      "##urt": 2722,
      "regier": 2723,
      "schlechte": 2724,
      "strom": 2725,
      "rede": 2726,
      "steu": 2727,
      "ziehen": 2728,
      "##wohn": 2729,
      "versuche": 2730,
      "moral": 2731,
      "##lagen": 2732,
      "regen": 2733,
      "199": 2734,
      "pflanzen": 2735,
      "online": 2736,
      "setzen": 2737,
      "anges": 2738,
      "kämp": 2739,
      "emot": 2740,
      "wachstum": 2741,
      "##iesen": 2742,
      "##ette": 2743,
      "meinung": 2744,
      "hoffe": 2745,
      "##ichtet": 2746,
      "##teilt": 2747,
      "tradition": 2748,
      "arbeits": 2749,
      "erfolgreich": 2750,
      "bakter": 2751,
      "sor": 2752,
      "wann": 2753,
      "wohn": 2754,
      "amerika": 2755,
      "entscheidungen": 2756,
      "erreicht": 2757,
      "##sphäre": 2758,
      "##lang": 2759,
      "##lage": 2760,
      "schmer": 2761,
      "hinzu": 2762,
      "zeige": 2763,
      "bekam": 2764,
      "##fekt": 2765,
      "phil": 2766,
      "##krank": 2767,
      "11": 2768,
      "##amer": 2769,
      "west": 2770,
      "meter": 2771,
      "ähnlich": 2772,
      "institut": 2773,
      "dor": 2774,
      "ku": 2775,
      "##ären": 2776,
      "komplett": 2777,
      "zeu": 2778,
      "##to": 2779,
      "gründe": 2780,
      "trotzdem": 2781,
      "et": 2782,
      "gingen": 2783,
      "tot": 2784,
      "##la": 2785,
      "##rän": 2786,
      "##ied": 2787,
      "##tent": 2788,
      "##ierend": 2789,
      "leist": 2790,
      "karte": 2791,
      "absolut": 2792,
      "##asen": 2793,
      "##tzut": 2794,
      "kompl": 2795,
      "information": 2796,
      "wand": 2797,
      "##ons": 2798,
      "##stens": 2799,
      "erwachsen": 2800,
      "##wirtschaft": 2801,
      "heutzut": 2802,
      "heutzutage": 2803,
      "vern": 2804,
      "##ruch": 2805,
      "straße": 2806,
      "diag": 2807,
      "firma": 2808,
      "sh": 2809,
      "liegen": 2810,
      "gleichzeitig": 2811,
      "schneller": 2812,
      "übrigen": 2813,
      "ga": 2814,
      "##pan": 2815,
      "hundert": 2816,
      "##rad": 2817,
      "genommen": 2818,
      "##arbeiten": 2819,
      "papier": 2820,
      "soft": 2821,
      "nachrichten": 2822,
      "jahrzeh": 2823,
      "tod": 2824,
      "offensichtlich": 2825,
      "!\"": 2826,
      "dra": 2827,
      "and": 2828,
      "geboren": 2829,
      "generation": 2830,
      "unterstütz": 2831,
      "mitgefühl": 2832,
      "sonne": 2833,
      "erkennt": 2834,
      "gebe": 2835,
      "##ologen": 2836,
      "##ame": 2837,
      "##dessen": 2838,
      "interessiert": 2839,
      "vereinigten": 2840,
      "##bildung": 2841,
      "jung": 2842,
      "stre": 2843,
      "früh": 2844,
      "##mung": 2845,
      "voraus": 2846,
      "machten": 2847,
      "gutes": 2848,
      "bücher": 2849,
      "##jenigen": 2850,
      "##oß": 2851,
      "geschieht": 2852,
      "##gef": 2853,
      "eng": 2854,
      "einfache": 2855,
      "##ister": 2856,
      "##istan": 2857,
      "brachte": 2858,
      "fähigkeiten": 2859,
      "sign": 2860,
      "beziehung": 2861,
      "herauszufinden": 2862,
      "einfluss": 2863,
      "bald": 2864,
      "##ose": 2865,
      "##äume": 2866,
      "##sprü": 2867,
      "##ätzen": 2868,
      "gruppen": 2869,
      "ergebnis": 2870,
      "sorgen": 2871,
      "##ziert": 2872,
      "##stück": 2873,
      "oberfläche": 2874,
      "prakt": 2875,
      "##krie": 2876,
      "bot": 2877,
      "det": 2878,
      "nennt": 2879,
      "sob": 2880,
      "##gele": 2881,
      "rechts": 2882,
      "sozialen": 2883,
      "wind": 2884,
      "erschein": 2885,
      "##mmern": 2886,
      "enor": 2887,
      "monat": 2888,
      "wichtige": 2889,
      "500": 2890,
      "90": 2891,
      "##ienst": 2892,
      "tragen": 2893,
      "erwä": 2894,
      "##lungen": 2895,
      "##viel": 2896,
      "verurs": 2897,
      "vergessen": 2898,
      "regeln": 2899,
      "europa": 2900,
      "seiten": 2901,
      "##wind": 2902,
      "##struktur": 2903,
      "##gest": 2904,
      "geschrieben": 2905,
      "normalerweise": 2906,
      "gesamte": 2907,
      "th": 2908,
      "prote": 2909,
      "hoffen": 2910,
      "schulen": 2911,
      "##lern": 2912,
      "##geg": 2913,
      "##obil": 2914,
      "ök": 2915,
      "wichtiger": 2916,
      "vortrag": 2917,
      "##endung": 2918,
      "lauf": 2919,
      "##daten": 2920,
      "##essour": 2921,
      "keiner": 2922,
      "##pfer": 2923,
      "fantast": 2924,
      "dachten": 2925,
      "echt": 2926,
      "##ue": 2927,
      "flü": 2928,
      "außerdem": 2929,
      "politik": 2930,
      "hoffnung": 2931,
      "einzelne": 2932,
      "hig": 2933,
      "tri": 2934,
      "##indungen": 2935,
      "mark": 2936,
      "beobachten": 2937,
      "krit": 2938,
      "einst": 2939,
      "verfol": 2940,
      "kannst": 2941,
      "##trä": 2942,
      "öffentlich": 2943,
      "##wirkungen": 2944,
      "oper": 2945,
      "ra": 2946,
      "##uellen": 2947,
      "##gende": 2948,
      "##abhäng": 2949,
      "begannen": 2950,
      "universität": 2951,
      "sitzen": 2952,
      "google": 2953,
      "dadurch": 2954,
      "konzept": 2955,
      "bestimmt": 2956,
      "studien": 2957,
      "my": 2958,
      "terr": 2959,
      "erg": 2960,
      "verz": 2961,
      "ansehen": 2962,
      "##essern": 2963,
      "##gendes": 2964,
      "produkt": 2965,
      "##bew": 2966,
      "gesprochen": 2967,
      "nahe": 2968,
      "bewusstsein": 2969,
      "gelegen": 2970,
      "deine": 2971,
      "##schul": 2972,
      "##ales": 2973,
      "nachhalt": 2974,
      "großer": 2975,
      "webs": 2976,
      "verlassen": 2977,
      "wussten": 2978,
      "jahrhunder": 2979,
      "interessante": 2980,
      "software": 2981,
      "hunder": 2982,
      "heut": 2983,
      "##ven": 2984,
      "##üss": 2985,
      "verbr": 2986,
      "ord": 2987,
      "##verb": 2988,
      "verständ": 2989,
      "sobald": 2990,
      "16": 2991,
      "ziv": 2992,
      "##ösen": 2993,
      "arme": 2994,
      "##üssel": 2995,
      "##ikation": 2996,
      "neun": 2997,
      "finde": 2998,
      "aufmerksamkeit": 2999,
      "himm": 3000,
      "krei": 3001,
      "einzu": 3002,
      "##isst": 3003,
      "vorbei": 3004,
      "redu": 3005,
      "bewegt": 3006,
      "übrigens": 3007,
      "uhr": 3008,
      "##stru": 3009,
      "##igte": 3010,
      "##ussen": 3011,
      "zuminde": 3012,
      "bemerken": 3013,
      "bevölkerung": 3014,
      "##wasser": 3015,
      "baum": 3016,
      "dau": 3017,
      "ressour": 3018,
      "##az": 3019,
      "näher": 3020,
      "einzelnen": 3021,
      "##icher": 3022,
      "gefü": 3023,
      "##ikel": 3024,
      "passierte": 3025,
      "wörter": 3026,
      "objekt": 3027,
      "dorf": 3028,
      "denkt": 3029,
      "##ragt": 3030,
      "dahin": 3031,
      "##recht": 3032,
      "##rauch": 3033,
      "sahen": 3034,
      "demokratie": 3035,
      "geheim": 3036,
      "##nete": 3037,
      "stamm": 3038,
      "empf": 3039,
      "trau": 3040,
      "abzu": 3041,
      "##altung": 3042,
      "bedeuten": 3043,
      "##feld": 3044,
      "##vent": 3045,
      "zugang": 3046,
      "schick": 3047,
      "genet": 3048,
      "kons": 3049,
      "gewis": 3050,
      "gerät": 3051,
      "grenzen": 3052,
      "fertig": 3053,
      "heil": 3054,
      "vol": 3055,
      "##äumen": 3056,
      "spezi": 3057,
      "bestimmten": 3058,
      "ständig": 3059,
      "zumindest": 3060,
      "14": 3061,
      "zufä": 3062,
      "##schlag": 3063,
      "terror": 3064,
      "##itter": 3065,
      "großes": 3066,
      "gere": 3067,
      "##gebracht": 3068,
      "versuchte": 3069,
      "physik": 3070,
      "af": 3071,
      "häuf": 3072,
      "##beh": 3073,
      "##imul": 3074,
      "##fert": 3075,
      "##ativen": 3076,
      "armut": 3077,
      "san": 3078,
      "##ari": 3079,
      "gearbeitet": 3080,
      "schm": 3081,
      "orte": 3082,
      "hy": 3083,
      "##kle": 3084,
      "##artet": 3085,
      "bere": 3086,
      "train": 3087,
      "kontrolle": 3088,
      "molekü": 3089,
      "ton": 3090,
      "monaten": 3091,
      "##wand": 3092,
      "tausende": 3093,
      "gala": 3094,
      "sen": 3095,
      "##ime": 3096,
      "##schung": 3097,
      "##orfen": 3098,
      "desig": 3099,
      "zweiten": 3100,
      "bessere": 3101,
      "amerikaner": 3102,
      "##les": 3103,
      "sohn": 3104,
      "möglichen": 3105,
      "##teilen": 3106,
      "trans": 3107,
      "theorie": 3108,
      "zivil": 3109,
      "bus": 3110,
      "echte": 3111,
      "john": 3112,
      "lag": 3113,
      "taten": 3114,
      "##iver": 3115,
      "poliz": 3116,
      "bleibt": 3117,
      "car": 3118,
      "##rab": 3119,
      "##menten": 3120,
      "spre": 3121,
      "verbessern": 3122,
      "bilden": 3123,
      "biolog": 3124,
      "bat": 3125,
      "not": 3126,
      "selt": 3127,
      "menschheit": 3128,
      "geschehen": 3129,
      "richtigen": 3130,
      "wü": 3131,
      "aufgrund": 3132,
      "##ama": 3133,
      "##kop": 3134,
      "firmen": 3135,
      "##bil": 3136,
      "verletz": 3137,
      "##ils": 3138,
      "nachbar": 3139,
      "##herap": 3140,
      "landes": 3141,
      "afrikan": 3142,
      "feuer": 3143,
      "##eder": 3144,
      "##schw": 3145,
      "sti": 3146,
      "abend": 3147,
      "spaß": 3148,
      "##ix": 3149,
      "##itär": 3150,
      "japan": 3151,
      "201": 3152,
      "personen": 3153,
      "##nehmer": 3154,
      "schüler": 3155,
      "rund": 3156,
      "hab": 3157,
      "verlieren": 3158,
      "krankheiten": 3159,
      "profess": 3160,
      "sod": 3161,
      "leider": 3162,
      "irgendwo": 3163,
      "70": 3164,
      "kür": 3165,
      "##reg": 3166,
      "vorh": 3167,
      "##omat": 3168,
      "##gere": 3169,
      "anschauen": 3170,
      "mittler": 3171,
      "##windigkeit": 3172,
      "tä": 3173,
      "##blich": 3174,
      "gewinnen": 3175,
      "orten": 3176,
      "##pfl": 3177,
      "allgemein": 3178,
      "telefon": 3179,
      "##kul": 3180,
      "##fs": 3181,
      "schreck": 3182,
      "beispiele": 3183,
      "deta": 3184,
      "diejenigen": 3185,
      "##atte": 3186,
      "##abil": 3187,
      "verbesser": 3188,
      "erhö": 3189,
      "hiv": 3190,
      "kern": 3191,
      "tagen": 3192,
      "##po": 3193,
      "kaum": 3194,
      "pe": 3195,
      "sand": 3196,
      "##tag": 3197,
      "##öff": 3198,
      "ebene": 3199,
      "##zun": 3200,
      "##machen": 3201,
      "##kre": 3202,
      "##orben": 3203,
      "##eitung": 3204,
      "arbeitete": 3205,
      "innovation": 3206,
      "ser": 3207,
      "schlimm": 3208,
      "gebiet": 3209,
      "produzieren": 3210,
      "untersuch": 3211,
      "entscheidung": 3212,
      "erzeugen": 3213,
      "sekunden": 3214,
      "galax": 3215,
      "##iot": 3216,
      "##pa": 3217,
      "##ächen": 3218,
      "nachricht": 3219,
      "##schluss": 3220,
      "sprachen": 3221,
      "amerikanischen": 3222,
      "spezies": 3223,
      "außen": 3224,
      "##raten": 3225,
      "wechs": 3226,
      "lief": 3227,
      "voller": 3228,
      "chris": 3229,
      "haut": 3230,
      "lit": 3231,
      "##schir": 3232,
      "bez": 3233,
      "##ktor": 3234,
      "konfl": 3235,
      "##quenz": 3236,
      "behau": 3237,
      "ebenso": 3238,
      "großartig": 3239,
      "vergangenheit": 3240,
      "sodass": 3241,
      "##go": 3242,
      "##ünft": 3243,
      "winz": 3244,
      "baby": 3245,
      "erlaubt": 3246,
      "antworten": 3247,
      "17": 3248,
      "altern": 3249,
      "park": 3250,
      "aussieht": 3251,
      "för": 3252,
      "##onie": 3253,
      "##öst": 3254,
      "uner": 3255,
      "unmöglich": 3256,
      "erzählt": 3257,
      "##hand": 3258,
      "wirklichkeit": 3259,
      "arbeitet": 3260,
      "nachzudenken": 3261,
      "dest": 3262,
      "wün": 3263,
      "klin": 3264,
      "##räfte": 3265,
      "worte": 3266,
      "zit": 3267,
      "entweder": 3268,
      "gebracht": 3269,
      "##press": 3270,
      "retten": 3271,
      "##ps": 3272,
      "##eisen": 3273,
      "sowohl": 3274,
      "erfahren": 3275,
      "chines": 3276,
      "mathematik": 3277,
      "bakterien": 3278,
      "dauer": 3279,
      "##lam": 3280,
      "##wür": 3281,
      "unabhäng": 3282,
      "flie": 3283,
      "gesamten": 3284,
      "ressourcen": 3285,
      "hum": 3286,
      "##ote": 3287,
      "##anc": 3288,
      "##eits": 3289,
      "wieso": 3290,
      "führte": 3291,
      "großartige": 3292,
      "frieden": 3293,
      "log": 3294,
      "##oten": 3295,
      "##ball": 3296,
      "warten": 3297,
      "komb": 3298,
      "region": 3299,
      "traf": 3300,
      "strate": 3301,
      "bestimmte": 3302,
      "ergebnisse": 3303,
      "digit": 3304,
      "##ierter": 3305,
      "denk": 3306,
      "##stelle": 3307,
      "solchen": 3308,
      "##zeichnet": 3309,
      "vertrauen": 3310,
      "fein": 3311,
      "##sweise": 3312,
      "##iegel": 3313,
      "alte": 3314,
      "vorstell": 3315,
      "verbinden": 3316,
      "befinden": 3317,
      "national": 3318,
      "kombin": 3319,
      "ig": 3320,
      "entdecken": 3321,
      "meeres": 3322,
      "bu": 3323,
      "hände": 3324,
      "runter": 3325,
      "traum": 3326,
      "##falt": 3327,
      "##stehen": 3328,
      "äu": 3329,
      "##licherweise": 3330,
      "sammeln": 3331,
      "##nungen": 3332,
      "einkommen": 3333,
      "dasselbe": 3334,
      "##samen": 3335,
      "##holen": 3336,
      "riesige": 3337,
      "kollegen": 3338,
      "##50": 3339,
      "##zimmer": 3340,
      "spielt": 3341,
      "quad": 3342,
      "höch": 3343,
      "präsent": 3344,
      "präsi": 3345,
      "untersuchen": 3346,
      "deut": 3347,
      "nenne": 3348,
      "##mäß": 3349,
      "gekommen": 3350,
      "##ingungen": 3351,
      "zeigte": 3352,
      "zusammenh": 3353,
      "gefäng": 3354,
      "globalen": 3355,
      "fre": 3356,
      "##gor": 3357,
      "schö": 3358,
      "##ierende": 3359,
      "niedr": 3360,
      "##ferenz": 3361,
      "dritte": 3362,
      "maschinen": 3363,
      "schwarz": 3364,
      "regierungen": 3365,
      "zeug": 3366,
      "fund": 3367,
      "verste": 3368,
      "schn": 3369,
      "##abel": 3370,
      "chance": 3371,
      "erzähl": 3372,
      "##ograph": 3373,
      "13": 3374,
      "laut": 3375,
      "##hör": 3376,
      "erwei": 3377,
      "könig": 3378,
      "jahres": 3379,
      "##hnung": 3380,
      "300": 3381,
      "##reitet": 3382,
      "##werke": 3383,
      "einzig": 3384,
      "kampf": 3385,
      "dür": 3386,
      "fo": 3387,
      "wa": 3388,
      "##schu": 3389,
      "schei": 3390,
      "##izien": 3391,
      "gefragt": 3392,
      "linie": 3393,
      "charakter": 3394,
      "ereig": 3395,
      "##altet": 3396,
      "bisher": 3397,
      "##ometer": 3398,
      "methode": 3399,
      "##son": 3400,
      "##kam": 3401,
      "##stern": 3402,
      "##arf": 3403,
      "##genie": 3404,
      "innen": 3405,
      "enth": 3406,
      "exp": 3407,
      "handeln": 3408,
      "gründen": 3409,
      "hilft": 3410,
      "partner": 3411,
      "geschäfts": 3412,
      "leidenschaft": 3413,
      "statist": 3414,
      "ker": 3415,
      "rot": 3416,
      "##pers": 3417,
      "sto": 3418,
      "##twend": 3419,
      "lebt": 3420,
      "berg": 3421,
      "##ssystem": 3422,
      "systeme": 3423,
      "sozial": 3424,
      "schmerz": 3425,
      "fakt": 3426,
      "welcher": 3427,
      "leisten": 3428,
      "##digen": 3429,
      "##äte": 3430,
      "verstanden": 3431,
      "sinne": 3432,
      "seltsam": 3433,
      "bren": 3434,
      "##hil": 3435,
      "##iti": 3436,
      "stol": 3437,
      "##assung": 3438,
      "erstens": 3439,
      "ep": 3440,
      "fangen": 3441,
      "hirn": 3442,
      "kol": 3443,
      "las": 3444,
      "rom": 3445,
      "wein": 3446,
      "##ämp": 3447,
      "zustand": 3448,
      "##ath": 3449,
      "##etter": 3450,
      "ausl": 3451,
      "ausw": 3452,
      "herausfinden": 3453,
      "himmel": 3454,
      "##win": 3455,
      "##weil": 3456,
      "##änomen": 3457,
      "198": 3458,
      "nummer": 3459,
      "krankenhaus": 3460,
      "ordnung": 3461,
      "ball": 3462,
      "lust": 3463,
      "läuft": 3464,
      "##ghan": 3465,
      "##nor": 3466,
      "ingenie": 3467,
      "fluss": 3468,
      "mechan": 3469,
      "##schiede": 3470,
      "##sprün": 3471,
      "bienen": 3472,
      "fle": 3473,
      "auswirkungen": 3474,
      "entschieden": 3475,
      "##abr": 3476,
      "geräu": 3477,
      "million": 3478,
      "fotograf": 3479,
      "netzwerk": 3480,
      "berühm": 3481,
      "21": 3482,
      "hält": 3483,
      "##ibt": 3484,
      "unterschei": 3485,
      "##erstoff": 3486,
      "ursprün": 3487,
      "fotos": 3488,
      "architektur": 3489,
      "hörte": 3490,
      "afghan": 3491,
      "mächt": 3492,
      "##amm": 3493,
      "##stes": 3494,
      "##eitet": 3495,
      "schützen": 3496,
      "erzählte": 3497,
      "##glicht": 3498,
      "außerhalb": 3499,
      "freiheit": 3500,
      "organisation": 3501,
      "englisch": 3502,
      "##rig": 3503,
      "einander": 3504,
      "gespr": 3505,
      "frem": 3506,
      "höhe": 3507,
      "##ständig": 3508,
      "##äuser": 3509,
      "ermöglicht": 3510,
      "ag": 3511,
      "cl": 3512,
      "drin": 3513,
      "messen": 3514,
      "zwe": 3515,
      "##ow": 3516,
      "gestellt": 3517,
      "bezug": 3518,
      "schrift": 3519,
      "##bed": 3520,
      "wohin": 3521,
      "erfahr": 3522,
      "arbeite": 3523,
      "öffentlichen": 3524,
      "beziehungen": 3525,
      "notwend": 3526,
      "ehrlich": 3527,
      "##wandel": 3528,
      "reaktion": 3529,
      "herunter": 3530,
      "besuch": 3531,
      "gewöhn": 3532,
      "weiteren": 3533,
      "nieder": 3534,
      "verstand": 3535,
      "bestehen": 3536,
      "phänomen": 3537,
      "betrachtet": 3538,
      "##produ": 3539,
      "##mitteln": 3540,
      "hor": 3541,
      "läch": 3542,
      "##zä": 3543,
      "##wart": 3544,
      "##ums": 3545,
      "materie": 3546,
      "nahrung": 3547,
      "of": 3548,
      "##ry": 3549,
      "##organ": 3550,
      "geburt": 3551,
      "##astrop": 3552,
      "cool": 3553,
      "büro": 3554,
      "##volle": 3555,
      "brust": 3556,
      "drogen": 3557,
      "kreis": 3558,
      "##ina": 3559,
      "##eum": 3560,
      "arzt": 3561,
      "geschaffen": 3562,
      "##ickt": 3563,
      "ökon": 3564,
      "letztes": 3565,
      "##arbeiter": 3566,
      "entdeckt": 3567,
      "militär": 3568,
      "verständnis": 3569,
      "äußer": 3570,
      "##stände": 3571,
      "erleben": 3572,
      "##bert": 3573,
      "kop": 3574,
      "mars": 3575,
      "gehirns": 3576,
      "ärzte": 3577,
      "ach": 3578,
      "mobil": 3579,
      "wol": 3580,
      "##ifft": 3581,
      "##fle": 3582,
      "hall": 3583,
      "herstellen": 3584,
      "##indern": 3585,
      "einzigen": 3586,
      "befindet": 3587,
      "finger": 3588,
      "##zunehmen": 3589,
      "##seh": 3590,
      "##ügen": 3591,
      "liebl": 3592,
      "schlüssel": 3593,
      "bühne": 3594,
      "unterstützen": 3595,
      "hunderte": 3596,
      "ken": 3597,
      "##ipp": 3598,
      "##antwor": 3599,
      "int": 3600,
      "##rochen": 3601,
      "##oph": 3602,
      "handelt": 3603,
      "bedür": 3604,
      "liste": 3605,
      "unver": 3606,
      "##laufen": 3607,
      "##ynam": 3608,
      "##rate": 3609,
      "armen": 3610,
      "klasse": 3611,
      "gene": 3612,
      "zweitens": 3613,
      "suche": 3614,
      "gek": 3615,
      "##isieren": 3616,
      "##rech": 3617,
      "##uchs": 3618,
      "irgendein": 3619,
      "beweg": 3620,
      "co2": 3621,
      "wundersch": 3622,
      "##stoffe": 3623,
      "desto": 3624,
      "getr": 3625,
      "angeb": 3626,
      "spiele": 3627,
      "folgendes": 3628,
      "bedro": 3629,
      "flugzeug": 3630,
      "jene": 3631,
      "##mension": 3632,
      "lachen": 3633,
      "##ütter": 3634,
      "grad": 3635,
      "farbe": 3636,
      "zunächst": 3637,
      "pau": 3638,
      "punkte": 3639,
      "##kur": 3640,
      "##jähr": 3641,
      "##asche": 3642,
      "deswegen": 3643,
      "selben": 3644,
      "guter": 3645,
      "kamera": 3646,
      "dok": 3647,
      "hart": 3648,
      "##gra": 3649,
      "##mt": 3650,
      "inse": 3651,
      "schaut": 3652,
      "stei": 3653,
      "mehrere": 3654,
      "wählen": 3655,
      "benutz": 3656,
      "risiko": 3657,
      "##sätzlich": 3658,
      "emotion": 3659,
      "bra": 3660,
      "setz": 3661,
      "tru": 3662,
      "##ifor": 3663,
      "##geht": 3664,
      "bezahl": 3665,
      "gescha": 3666,
      "entsp": 3667,
      "grundlegen": 3668,
      "##sichtig": 3669,
      "##stä": 3670,
      "##unt": 3671,
      "##emen": 3672,
      "stunde": 3673,
      "wenige": 3674,
      "umf": 3675,
      "rechte": 3676,
      "fühlte": 3677,
      "##kla": 3678,
      "behandlung": 3679,
      "##wärts": 3680,
      "##hy": 3681,
      "name": 3682,
      "pal": 3683,
      "##samm": 3684,
      "zeitpunkt": 3685,
      "interesse": 3686,
      "außergewöhn": 3687,
      "tisch": 3688,
      "##fik": 3689,
      "getroffen": 3690,
      "instru": 3691,
      "standard": 3692,
      "klimawandel": 3693,
      "sens": 3694,
      "##zer": 3695,
      "##iell": 3696,
      "erwarten": 3697,
      "wunderbar": 3698,
      "lösungen": 3699,
      "kapital": 3700,
      "medikamente": 3701,
      "##schirm": 3702,
      "erfahrungen": 3703,
      "##ca": 3704,
      "##ith": 3705,
      "##ielten": 3706,
      "weib": 3707,
      "herzen": 3708,
      "ebenfalls": 3709,
      "##selben": 3710,
      "gesundheits": 3711,
      "vermut": 3712,
      "stattdessen": 3713,
      "erinnere": 3714,
      "high": 3715,
      "gefängnis": 3716,
      "##rt": 3717,
      "##kar": 3718,
      "##ndon": 3719,
      "##eisch": 3720,
      "##schte": 3721,
      "##itionen": 3722,
      "gefä": 3723,
      "artikel": 3724,
      "wichtigste": 3725,
      "akzept": 3726,
      "jahrhunderts": 3727,
      "designer": 3728,
      "fen": 3729,
      "kenne": 3730,
      "##urg": 3731,
      "##isation": 3732,
      "darf": 3733,
      "trag": 3734,
      "verkaufen": 3735,
      "behaup": 3736,
      "deu": 3737,
      "massen": 3738,
      "##pag": 3739,
      "##deut": 3740,
      "##ehme": 3741,
      "##ions": 3742,
      "wege": 3743,
      "##maßen": 3744,
      "öffnen": 3745,
      "heutigen": 3746,
      "hung": 3747,
      "hört": 3748,
      "mär": 3749,
      "nahr": 3750,
      "##zut": 3751,
      "##passen": 3752,
      "aufw": 3753,
      "##ilien": 3754,
      "selten": 3755,
      "##ritte": 3756,
      "motiv": 3757,
      "bank": 3758,
      "km": 3759,
      "wett": 3760,
      "wandel": 3761,
      "##teile": 3762,
      "##wa": 3763,
      "infra": 3764,
      "schicken": 3765,
      "stimmen": 3766,
      "ganzes": 3767,
      "landwirtschaft": 3768,
      "spricht": 3769,
      "fällt": 3770,
      "##ids": 3771,
      "##riere": 3772,
      "##met": 3773,
      "##frieden": 3774,
      "##iete": 3775,
      "heran": 3776,
      "geschle": 3777,
      "##sage": 3778,
      "##ritann": 3779,
      "veränderungen": 3780,
      "privat": 3781,
      "nütz": 3782,
      "trin": 3783,
      "##stag": 3784,
      "nahmen": 3785,
      "##lose": 3786,
      "pop": 3787,
      "##gien": 3788,
      "##ek": 3789,
      "##spl": 3790,
      "##barkeit": 3791,
      "schlag": 3792,
      "jemandem": 3793,
      "zeiten": 3794,
      "##leist": 3795,
      "##kan": 3796,
      "abhäng": 3797,
      "naja": 3798,
      "seien": 3799,
      "##gaben": 3800,
      "perfekt": 3801,
      "verhält": 3802,
      "ansatz": 3803,
      "mult": 3804,
      "##vie": 3805,
      "##öse": 3806,
      "sport": 3807,
      "unglaubliche": 3808,
      "result": 3809,
      "optim": 3810,
      "##gefunden": 3811,
      "sm": 3812,
      "##buch": 3813,
      "##geführt": 3814,
      "sommer": 3815,
      "werte": 3816,
      "worten": 3817,
      "##maß": 3818,
      "unterschiedliche": 3819,
      "erstaunlich": 3820,
      "##wissenschaft": 3821,
      "fallen": 3822,
      "jo": 3823,
      "##lant": 3824,
      "##ober": 3825,
      "##pol": 3826,
      "##tert": 3827,
      "beteil": 3828,
      "überle": 3829,
      "einfachen": 3830,
      "begeister": 3831,
      "erfunden": 3832,
      "##gebaut": 3833,
      "lernte": 3834,
      "verantwortung": 3835,
      "ignor": 3836,
      "grau": 3837,
      "it": 3838,
      "gewe": 3839,
      "gedacht": 3840,
      "schönheit": 3841,
      "farben": 3842,
      "##iforn": 3843,
      "beit": 3844,
      "dienst": 3845,
      "##alle": 3846,
      "##ub": 3847,
      "##ndet": 3848,
      "##isiert": 3849,
      "projekte": 3850,
      "geschah": 3851,
      "eigenschaften": 3852,
      "behandeln": 3853,
      "##mode": 3854,
      "null": 3855,
      "endlich": 3856,
      "verrückt": 3857,
      "bedürf": 3858,
      "gil": 3859,
      "##dings": 3860,
      "##schutz": 3861,
      "auge": 3862,
      "arg": 3863,
      "##ahmen": 3864,
      "##räsent": 3865,
      "globale": 3866,
      "kontakt": 3867,
      "london": 3868,
      "transport": 3869,
      "##ritannien": 3870,
      "ed": 3871,
      "##fter": 3872,
      "##prü": 3873,
      "ausdruck": 3874,
      "gewinn": 3875,
      "##schließen": 3876,
      "freunden": 3877,
      "atmo": 3878,
      "halb": 3879,
      "dopp": 3880,
      "##zusagen": 3881,
      "##gress": 3882,
      "entfern": 3883,
      "konzentrieren": 3884,
      "##seite": 3885,
      "##brechen": 3886,
      "##orn": 3887,
      "##bewer": 3888,
      "spitze": 3889,
      "rechten": 3890,
      "plast": 3891,
      "bestand": 3892,
      "grün": 3893,
      "angefangen": 3894,
      "überraschen": 3895,
      "männern": 3896,
      "ahnung": 3897,
      "rand": 3898,
      "zelle": 3899,
      "##ssen": 3900,
      "##pekt": 3901,
      "zusch": 3902,
      "##alist": 3903,
      "##ragen": 3904,
      "gehe": 3905,
      "verbringen": 3906,
      "komme": 3907,
      "interessanter": 3908,
      "existiert": 3909,
      "infrastruktur": 3910,
      "##keln": 3911,
      "##itt": 3912,
      "erfü": 3913,
      "schutz": 3914,
      "##örung": 3915,
      "neuer": 3916,
      "biologie": 3917,
      "nähe": 3918,
      "entstehen": 3919,
      "motor": 3920,
      "\"-": 3921,
      "24": 3922,
      "as": 3923,
      "jün": 3924,
      "tieren": 3925,
      "waffen": 3926,
      "wald": 3927,
      "##setzt": 3928,
      "##unsch": 3929,
      "reicht": 3930,
      "kla": 3931,
      "##rücken": 3932,
      "produkte": 3933,
      "rücken": 3934,
      "islam": 3935,
      "städten": 3936,
      "kämpfen": 3937,
      "nahrungs": 3938,
      "del": 3939,
      "ira": 3940,
      "titel": 3941,
      "##hei": 3942,
      "##will": 3943,
      "spekt": 3944,
      "##ierenden": 3945,
      "gering": 3946,
      "expl": 3947,
      "freude": 3948,
      "kommunikation": 3949,
      "fach": 3950,
      "##sto": 3951,
      "beantwor": 3952,
      "schrei": 3953,
      "westen": 3954,
      "gewä": 3955,
      "##istor": 3956,
      "eigenes": 3957,
      "tolle": 3958,
      "materialien": 3959,
      "feld": 3960,
      "##ns": 3961,
      "##britannien": 3962,
      "schluss": 3963,
      "##plan": 3964,
      "schöne": 3965,
      "frühen": 3966,
      "##alisierung": 3967,
      "verfügung": 3968,
      "gang": 3969,
      "##bi": 3970,
      "##vel": 3971,
      "erl": 3972,
      "text": 3973,
      "version": 3974,
      "mond": 3975,
      "see": 3976,
      "nächstes": 3977,
      "größere": 3978,
      "hey": 3979,
      "sauerstoff": 3980,
      "merk": 3981,
      "jugend": 3982,
      "trifft": 3983,
      "häufig": 3984,
      "spreche": 3985,
      "bom": 3986,
      "##masch": 3987,
      "##stadt": 3988,
      "wichtigsten": 3989,
      "197": 3990,
      "fällen": 3991,
      "##ourn": 3992,
      "virus": 3993,
      "gegangen": 3994,
      "bemerkens": 3995,
      "arab": 3996,
      "##rö": 3997,
      "##par": 3998,
      "schwei": 3999,
      "##spe": 4000,
      "##raucht": 4001,
      "dennoch": 4002,
      "perfe": 4003,
      "verfüg": 4004,
      "polizei": 4005,
      "bäume": 4006,
      "port": 4007,
      "kom": 4008,
      "abge": 4009,
      "museum": 4010,
      "verbindungen": 4011,
      "weiterhin": 4012,
      "allerdings": 4013,
      "schwarze": 4014,
      "kontrollieren": 4015,
      "fenster": 4016,
      "bud": 4017,
      "wal": 4018,
      "##lie": 4019,
      "##scher": 4020,
      "##dert": 4021,
      "##ochter": 4022,
      "##peratur": 4023,
      "sicherlich": 4024,
      "erstes": 4025,
      "respekt": 4026,
      "experimente": 4027,
      "knochen": 4028,
      "##drücken": 4029,
      "religion": 4030,
      "repräsent": 4031,
      "gelegenheit": 4032,
      "nöt": 4033,
      "pil": 4034,
      "##gier": 4035,
      "##ikas": 4036,
      "seines": 4037,
      "begonnen": 4038,
      "irgendwann": 4039,
      "fehl": 4040,
      "position": 4041,
      "erzeugt": 4042,
      "fortschritt": 4043,
      "geschafft": 4044,
      "fru": 4045,
      "kauf": 4046,
      "mel": 4047,
      "vari": 4048,
      "##ufen": 4049,
      "##ikt": 4050,
      "einsch": 4051,
      "##orgung": 4052,
      "verbl": 4053,
      "aufgenommen": 4054,
      "##twick": 4055,
      "legen": 4056,
      "herzustellen": 4057,
      "spieler": 4058,
      "leid": 4059,
      "integr": 4060,
      "riesigen": 4061,
      "beeinflusst": 4062,
      "erwähn": 4063,
      "##hilfe": 4064,
      "opfer": 4065,
      "somit": 4066,
      "unterschiede": 4067,
      "blog": 4068,
      "autor": 4069,
      "depress": 4070,
      "produktion": 4071,
      "dunkel": 4072,
      "einzigart": 4073,
      "stolz": 4074,
      "säu": 4075,
      "##ament": 4076,
      "kohlen": 4077,
      "genutzt": 4078,
      "fühlt": 4079,
      "glas": 4080,
      "##cebo": 4081,
      "##istenz": 4082,
      "symb": 4083,
      "kreativität": 4084,
      "kilometer": 4085,
      "tochter": 4086,
      "##zung": 4087,
      "##tell": 4088,
      "##ane": 4089,
      "erstellen": 4090,
      "großbritannien": 4091,
      "web": 4092,
      "ließ": 4093,
      "neg": 4094,
      "brauchte": 4095,
      "einsatz": 4096,
      "##haltung": 4097,
      "größeren": 4098,
      "nerven": 4099,
      "hom": 4100,
      "sal": 4101,
      "##seit": 4102,
      "verf": 4103,
      "sogen": 4104,
      "##anda": 4105,
      "reagieren": 4106,
      "vielfalt": 4107,
      "##anke": 4108,
      "##glie": 4109,
      "letztendlich": 4110,
      "atom": 4111,
      "werkzeuge": 4112,
      "entwicklungsl": 4113,
      "##äst": 4114,
      "auseinander": 4115,
      "##neten": 4116,
      "geschwindigkeit": 4117,
      "erlauben": 4118,
      "bal": 4119,
      "ei": 4120,
      "fett": 4121,
      "tim": 4122,
      "##gern": 4123,
      "##text": 4124,
      "##mmun": 4125,
      "habt": 4126,
      "red": 4127,
      "##reise": 4128,
      "entlang": 4129,
      "##ogel": 4130,
      "gefangen": 4131,
      "politischen": 4132,
      "haupts": 4133,
      "ermöglichen": 4134,
      "##wohner": 4135,
      "philos": 4136,
      "dagegen": 4137,
      "umzu": 4138,
      "##wechs": 4139,
      "##üsse": 4140,
      "fühle": 4141,
      "intervie": 4142,
      "frank": 4143,
      "karten": 4144,
      "effizien": 4145,
      "investieren": 4146,
      "zentrum": 4147,
      "tanz": 4148,
      "##sse": 4149,
      "##treten": 4150,
      "##bü": 4151,
      "##iebt": 4152,
      "##testen": 4153,
      "verschl": 4154,
      "##urm": 4155,
      "einfacher": 4156,
      "mex": 4157,
      "dorthin": 4158,
      "##geschichte": 4159,
      "##hause": 4160,
      "##setzung": 4161,
      "kompliz": 4162,
      "400": 4163,
      "händ": 4164,
      "##het": 4165,
      "##uer": 4166,
      "gehir": 4167,
      "konstru": 4168,
      "gewicht": 4169,
      "entwer": 4170,
      "davor": 4171,
      "verwir": 4172,
      "todes": 4173,
      "boot": 4174,
      "##geschlossen": 4175,
      "amerikanische": 4176,
      "isra": 4177,
      "fernsehen": 4178,
      "##minister": 4179,
      "beeinflussen": 4180,
      "schlaf": 4181,
      "loch": 4182,
      "passen": 4183,
      "##sk": 4184,
      "##fisch": 4185,
      "schnit": 4186,
      "klass": 4187,
      "klingt": 4188,
      "wär": 4189,
      "gemeinde": 4190,
      "politische": 4191,
      "##zeichnen": 4192,
      "fernseh": 4193,
      "deutlich": 4194,
      "band": 4195,
      "kennt": 4196,
      "osten": 4197,
      "yo": 4198,
      "##bieren": 4199,
      "begeg": 4200,
      "##sende": 4201,
      "klassen": 4202,
      "ameisen": 4203,
      "##heben": 4204,
      "##fälle": 4205,
      "soldaten": 4206,
      "196": 4207,
      "produziert": 4208,
      "minde": 4209,
      "perspekt": 4210,
      "typen": 4211,
      "zeichen": 4212,
      "temperatur": 4213,
      "müll": 4214,
      "gaben": 4215,
      "gefühle": 4216,
      "gilt": 4217,
      "che": 4218,
      "drü": 4219,
      "langen": 4220,
      "nehme": 4221,
      "szen": 4222,
      "wunsch": 4223,
      "##zlich": 4224,
      "##arm": 4225,
      "##leun": 4226,
      "amp": 4227,
      "potent": 4228,
      "gesellschaften": 4229,
      "elektron": 4230,
      "neuronen": 4231,
      "zusammenhang": 4232,
      "hielt": 4233,
      "mass": 4234,
      "##oper": 4235,
      "##ba": 4236,
      "##angt": 4237,
      "##urcht": 4238,
      "unsicht": 4239,
      "großteil": 4240,
      "iran": 4241,
      "kurzem": 4242,
      "##tember": 4243,
      "afghanistan": 4244,
      "dicht": 4245,
      "hund": 4246,
      "kunden": 4247,
      "##greifen": 4248,
      "##fallen": 4249,
      "##eien": 4250,
      "austr": 4251,
      "eröff": 4252,
      "prot": 4253,
      "##osaur": 4254,
      "karriere": 4255,
      "stellten": 4256,
      "überras": 4257,
      "erforschen": 4258,
      "fundament": 4259,
      "vermutlich": 4260,
      "fok": 4261,
      "##li": 4262,
      "##stab": 4263,
      "schimp": 4264,
      "##ckte": 4265,
      "solch": 4266,
      "##akten": 4267,
      "behandelt": 4268,
      "ol": 4269,
      "##nissen": 4270,
      "##ritten": 4271,
      "holz": 4272,
      "diskuss": 4273,
      "botschaft": 4274,
      "col": 4275,
      "kö": 4276,
      "##ller": 4277,
      "##etr": 4278,
      "alleine": 4279,
      "konferenz": 4280,
      "begriff": 4281,
      "##verständ": 4282,
      "verkauf": 4283,
      "sterne": 4284,
      "korallen": 4285,
      "entsteht": 4286,
      "virt": 4287,
      "journ": 4288,
      "seh": 4289,
      "##abt": 4290,
      "##laden": 4291,
      "dieselbe": 4292,
      "spür": 4293,
      "kostet": 4294,
      "bloß": 4295,
      "david": 4296,
      "bras": 4297,
      "##mögen": 4298,
      "absol": 4299,
      "##frage": 4300,
      "aufgaben": 4301,
      "werkzeug": 4302,
      "facebo": 4303,
      "ändert": 4304,
      "facebook": 4305,
      "ehe": 4306,
      "fabr": 4307,
      "##rum": 4308,
      "##sor": 4309,
      "##tlicht": 4310,
      "##bruch": 4311,
      "zuhause": 4312,
      "##otyp": 4313,
      "##izität": 4314,
      "ziele": 4315,
      "##folge": 4316,
      "hoffentlich": 4317,
      "insekten": 4318,
      "israel": 4319,
      "eth": 4320,
      "##mel": 4321,
      "derzeit": 4322,
      "ausbildung": 4323,
      "##osystem": 4324,
      "entschied": 4325,
      "##formen": 4326,
      "wiederum": 4327,
      "weiteres": 4328,
      "qualität": 4329,
      "verkauft": 4330,
      "halte": 4331,
      "kontin": 4332,
      "gä": 4333,
      "satz": 4334,
      "##ex": 4335,
      "##erken": 4336,
      "genom": 4337,
      "##stellte": 4338,
      "##schlä": 4339,
      "betrifft": 4340,
      "meistens": 4341,
      "bedingungen": 4342,
      "sekunde": 4343,
      "diagno": 4344,
      "irak": 4345,
      "fro": 4346,
      "kir": 4347,
      "laden": 4348,
      "trei": 4349,
      "##stre": 4350,
      "##änglich": 4351,
      "##riffen": 4352,
      "##alisieren": 4353,
      "komplexität": 4354,
      "kommunizieren": 4355,
      "katastrop": 4356,
      "##ifornien": 4357,
      "atmosphäre": 4358,
      "pen": 4359,
      "rat": 4360,
      "tum": 4361,
      "##sser": 4362,
      "##bank": 4363,
      "wirst": 4364,
      "üb": 4365,
      "werfen": 4366,
      "abges": 4367,
      "stein": 4368,
      "teilchen": 4369,
      "##haben": 4370,
      "drittel": 4371,
      "beruf": 4372,
      "veröffentlicht": 4373,
      "unterstützung": 4374,
      "dom": 4375,
      "##vier": 4376,
      "##ana": 4377,
      "speich": 4378,
      "##chtigkeit": 4379,
      "saß": 4380,
      "##pfel": 4381,
      "beschreiben": 4382,
      "2000": 4383,
      "organisationen": 4384,
      "stress": 4385,
      "töten": 4386,
      "verursacht": 4387,
      "ökosystem": 4388,
      "wunderschön": 4389,
      "brie": 4390,
      "city": 4391,
      "dynam": 4392,
      "steigen": 4393,
      "stabil": 4394,
      "##frika": 4395,
      "reisen": 4396,
      "gestalten": 4397,
      "dreh": 4398,
      "verkehr": 4399,
      "tausend": 4400,
      "babys": 4401,
      "sowie": 4402,
      "gold": 4403,
      "benötigen": 4404,
      "zufällig": 4405,
      "plastik": 4406,
      "angel": 4407,
      "vorber": 4408,
      "##ami": 4409,
      "klang": 4410,
      "weder": 4411,
      "gewonnen": 4412,
      "entwickelten": 4413,
      "solar": 4414,
      "buchstä": 4415,
      "überzeugt": 4416,
      "intelligenz": 4417,
      "fei": 4418,
      "fiel": 4419,
      "lasst": 4420,
      "sho": 4421,
      "vogel": 4422,
      "##dingt": 4423,
      "##umen": 4424,
      "anru": 4425,
      "linken": 4426,
      "drehen": 4427,
      "theor": 4428,
      "basis": 4429,
      "schafft": 4430,
      "##zwischen": 4431,
      "dokument": 4432,
      "dün": 4433,
      "##oge": 4434,
      "##ool": 4435,
      "schäd": 4436,
      "stoff": 4437,
      "##industrie": 4438,
      "koll": 4439,
      "unternehmer": 4440,
      "stecken": 4441,
      "chir": 4442,
      "##gewicht": 4443,
      "bewir": 4444,
      "hintergrund": 4445,
      "metap": 4446,
      "##zeichen": 4447,
      "erinnert": 4448,
      "universums": 4449,
      "##krieg": 4450,
      "entwerfen": 4451,
      "mu": 4452,
      "tw": 4453,
      "##imal": 4454,
      "umgehen": 4455,
      "##amb": 4456,
      "##zubringen": 4457,
      "##halte": 4458,
      "begren": 4459,
      "zusammenarbeit": 4460,
      "##teilung": 4461,
      "roten": 4462,
      "##vollen": 4463,
      "##cy": 4464,
      "schlau": 4465,
      "##zelle": 4466,
      "absch": 4467,
      "neugier": 4468,
      "lieber": 4469,
      "herausgefunden": 4470,
      "kreu": 4471,
      "vollkommen": 4472,
      "##gabe": 4473,
      "belieb": 4474,
      "forscher": 4475,
      "radio": 4476,
      "gesetze": 4477,
      "religi": 4478,
      "berechn": 4479,
      "quadrat": 4480,
      "hyp": 4481,
      "sil": 4482,
      "tal": 4483,
      "##far": 4484,
      "##eratur": 4485,
      "##stu": 4486,
      "##ged": 4487,
      "##rim": 4488,
      "automat": 4489,
      "##ice": 4490,
      "augenblick": 4491,
      "bitten": 4492,
      "unbedingt": 4493,
      "identität": 4494,
      "##krebs": 4495,
      "ass": 4496,
      "con": 4497,
      "##dung": 4498,
      "inf": 4499,
      "##ungssystem": 4500,
      "orig": 4501,
      "möglicherweise": 4502,
      "wahrscheinlichkeit": 4503,
      "##holt": 4504,
      "modelle": 4505,
      "jobs": 4506,
      "lautet": 4507,
      "laufe": 4508,
      "##gorith": 4509,
      "wettbewer": 4510,
      "##zy": 4511,
      "##chnen": 4512,
      "##stein": 4513,
      "##schauen": 4514,
      "intens": 4515,
      "ungl": 4516,
      "übertragen": 4517,
      "##ildet": 4518,
      "proje": 4519,
      "handy": 4520,
      "##schlagen": 4521,
      "wissenschaftliche": 4522,
      "##schnitt": 4523,
      "##losen": 4524,
      "restaur": 4525,
      "herausforderungen": 4526,
      "brot": 4527,
      "buchstäblich": 4528,
      "affen": 4529,
      "masse": 4530,
      "prü": 4531,
      "russ": 4532,
      "##arch": 4533,
      "bewer": 4534,
      "schiff": 4535,
      "durchgeführt": 4536,
      "besitzen": 4537,
      "##ford": 4538,
      "schließen": 4539,
      "objekte": 4540,
      "natürliche": 4541,
      "hohen": 4542,
      "kümmern": 4543,
      "falsche": 4544,
      "relativ": 4545,
      "##führer": 4546,
      "beschäftigt": 4547,
      "stift": 4548,
      "##ling": 4549,
      "verr": 4550,
      "woher": 4551,
      "nochmal": 4552,
      "selber": 4553,
      "verbreitet": 4554,
      "problemen": 4555,
      "##fest": 4556,
      "beschleun": 4557,
      "##frist": 4558,
      "unterschiedlichen": 4559,
      "verdienen": 4560,
      "sauber": 4561,
      "golf": 4562,
      "bezahlen": 4563,
      "aids": 4564,
      "ren": 4565,
      "##onom": 4566,
      "erster": 4567,
      "##bereich": 4568,
      "mitten": 4569,
      "##ettet": 4570,
      "##ames": 4571,
      "satell": 4572,
      "testen": 4573,
      "fragten": 4574,
      "##steller": 4575,
      "starb": 4576,
      "gestern": 4577,
      "sitzt": 4578,
      "erklärt": 4579,
      "mindestens": 4580,
      "schimpan": 4581,
      "sä": 4582,
      "usw": 4583,
      "##itu": 4584,
      "geführt": 4585,
      "anderem": 4586,
      "##ada": 4587,
      "geräte": 4588,
      "##serv": 4589,
      "wahrneh": 4590,
      "dreht": 4591,
      "bett": 4592,
      "elektro": 4593,
      "##zusehen": 4594,
      "stärker": 4595,
      "verfolgen": 4596,
      "täglich": 4597,
      "kohlenstoff": 4598,
      "symbol": 4599,
      "beine": 4600,
      "bahn": 4601,
      "ter": 4602,
      "tren": 4603,
      "##anzie": 4604,
      "zuk": 4605,
      "zufrieden": 4606,
      "sozusagen": 4607,
      "ment": 4608,
      "kontext": 4609,
      "schlimmer": 4610,
      "cha": 4611,
      "##riffe": 4612,
      "bildschirm": 4613,
      "ernähr": 4614,
      "milliarde": 4615,
      "öffentliche": 4616,
      "europä": 4617,
      "benötigt": 4618,
      "modernen": 4619,
      "institutionen": 4620,
      "dürfen": 4621,
      "bri": 4622,
      "brit": 4623,
      "ke": 4624,
      "##ong": 4625,
      "extra": 4626,
      "##front": 4627,
      "erwartet": 4628,
      "##platz": 4629,
      "post": 4630,
      "symp": 4631,
      "getö": 4632,
      "150": 4633,
      "vergleichen": 4634,
      "präsident": 4635,
      "interview": 4636,
      "niger": 4637,
      "##mann": 4638,
      "eindruck": 4639,
      "geor": 4640,
      "##anne": 4641,
      "gelangen": 4642,
      "bestimmen": 4643,
      "##spieler": 4644,
      "bio": 4645,
      "colle": 4646,
      "##richtung": 4647,
      "##digung": 4648,
      "themen": 4649,
      "analys": 4650,
      "zukünft": 4651,
      "ehem": 4652,
      "##amen": 4653,
      "##dit": 4654,
      "##by": 4655,
      "##ante": 4656,
      "##orgt": 4657,
      "anb": 4658,
      "still": 4659,
      "weiss": 4660,
      "##ätsel": 4661,
      "steckt": 4662,
      "fleisch": 4663,
      "##ption": 4664,
      "glaubt": 4665,
      "##fält": 4666,
      "gegenteil": 4667,
      "besseren": 4668,
      "deb": 4669,
      "korru": 4670,
      "videos": 4671,
      "##ächtnis": 4672,
      "überzeugen": 4673,
      "leistung": 4674,
      "##träge": 4675,
      "konsum": 4676,
      "ökonom": 4677,
      "hauptsächlich": 4678,
      "##osaurier": 4679,
      "mos": 4680,
      "therap": 4681,
      "##anen": 4682,
      "##hafte": 4683,
      "freiwill": 4684,
      "##ilet": 4685,
      "strukturen": 4686,
      "histor": 4687,
      "roll": 4688,
      "simul": 4689,
      "tät": 4690,
      "##gleich": 4691,
      "##iden": 4692,
      "##opp": 4693,
      "übersch": 4694,
      "hinweg": 4695,
      "##ungskraft": 4696,
      "##ptop": 4697,
      "##eller": 4698,
      "lebensmittel": 4699,
      "kindheit": 4700,
      "einsetzen": 4701,
      "kaffe": 4702,
      "experten": 4703,
      "profit": 4704,
      "effektiv": 4705,
      "##mutter": 4706,
      "fische": 4707,
      "hängt": 4708,
      "meilen": 4709,
      "vo": 4710,
      "wächst": 4711,
      "##zur": 4712,
      "daß": 4713,
      "entschl": 4714,
      "##werte": 4715,
      "heim": 4716,
      "gefahr": 4717,
      "sub": 4718,
      "erinnerung": 4719,
      "dritten": 4720,
      "erhält": 4721,
      "deinen": 4722,
      "pfle": 4723,
      "persönlich": 4724,
      "vision": 4725,
      "kalifornien": 4726,
      "steuer": 4727,
      "lieblings": 4728,
      "##emente": 4729,
      "wild": 4730,
      "##techn": 4731,
      "##iertes": 4732,
      "##amin": 4733,
      "interagieren": 4734,
      "gewissen": 4735,
      "fragt": 4736,
      "schwimmen": 4737,
      "##aktionen": 4738,
      "trick": 4739,
      "filme": 4740,
      "restaurant": 4741,
      ",\"": 4742,
      "##hö": 4743,
      "##fa": 4744,
      "##chern": 4745,
      "könnt": 4746,
      "bildern": 4747,
      "welchen": 4748,
      "zurückzu": 4749,
      "##spielen": 4750,
      "hohe": 4751,
      "##ützt": 4752,
      "führung": 4753,
      "verwandeln": 4754,
      "volk": 4755,
      "ox": 4756,
      "##zeiten": 4757,
      "##stau": 4758,
      "##stimm": 4759,
      "##ara": 4760,
      "musl": 4761,
      "##trieben": 4762,
      "##rücke": 4763,
      "franz": 4764,
      "gegenseit": 4765,
      "##freu": 4766,
      "finanzie": 4767,
      "patient": 4768,
      "reichen": 4769,
      "überrascht": 4770,
      "getötet": 4771,
      "ecke": 4772,
      "jungs": 4773,
      "maus": 4774,
      "zü": 4775,
      "##band": 4776,
      "##atoren": 4777,
      "##ehrt": 4778,
      "gross": 4779,
      "belohn": 4780,
      "wesentlichen": 4781,
      "gefährlich": 4782,
      "##gelegen": 4783,
      "vorhanden": 4784,
      "argument": 4785,
      "mc": 4786,
      "tue": 4787,
      "##res": 4788,
      "##sinn": 4789,
      "##ippe": 4790,
      "##kor": 4791,
      "##ichen": 4792,
      "##isierung": 4793,
      "##hlung": 4794,
      "sep": 4795,
      "##klus": 4796,
      "heimat": 4797,
      "zunehmen": 4798,
      "verzwei": 4799,
      "gewisser": 4800,
      "ah": 4801,
      "##fern": 4802,
      "##ony": 4803,
      "schreibt": 4804,
      "##ilde": 4805,
      "weißen": 4806,
      "kohle": 4807,
      "##adem": 4808,
      "äg": 4809,
      "gren": 4810,
      "##geladen": 4811,
      "genauer": 4812,
      "worüber": 4813,
      "interessieren": 4814,
      "norden": 4815,
      "haufen": 4816,
      "folge": 4817,
      "produktiv": 4818,
      "ungleich": 4819,
      "bauern": 4820,
      "##alisiert": 4821,
      "scheinen": 4822,
      "identif": 4823,
      "praktisch": 4824,
      "galaxien": 4825,
      "geschlecht": 4826,
      "##modell": 4827,
      "philosoph": 4828,
      "rätsel": 4829,
      "##yl": 4830,
      "dinosaurier": 4831,
      "##achtung": 4832,
      "irgende": 4833,
      "verhaltens": 4834,
      "##napp": 4835,
      "england": 4836,
      "verschwinden": 4837,
      "professor": 4838,
      "kürzlich": 4839,
      "irgendetw": 4840,
      "brü": 4841,
      "rich": 4842,
      "zimmer": 4843,
      "##hört": 4844,
      "##nimmt": 4845,
      "##reffen": 4846,
      "impf": 4847,
      "verbracht": 4848,
      "##programm": 4849,
      "wunderbare": 4850,
      "vollständig": 4851,
      "verhindern": 4852,
      "aktivität": 4853,
      "willen": 4854,
      "laptop": 4855,
      "schaff": 4856,
      "epi": 4857,
      "schnitt": 4858,
      "irgendetwas": 4859,
      "häuser": 4860,
      "mütter": 4861,
      "##läss": 4862,
      "##ießt": 4863,
      "##inge": 4864,
      "##tex": 4865,
      "##itzt": 4866,
      "##bewe": 4867,
      "geschen": 4868,
      "spiegel": 4869,
      "forschungs": 4870,
      "basiert": 4871,
      "morgens": 4872,
      "bruder": 4873,
      "existieren": 4874,
      "total": 4875,
      "konflikt": 4876,
      "begeistert": 4877,
      "perspektive": 4878,
      "hu": 4879,
      "rahmen": 4880,
      "##fung": 4881,
      "##inne": 4882,
      "zuge": 4883,
      "pak": 4884,
      "erzähle": 4885,
      "##quenzen": 4886,
      "sucht": 4887,
      "versuchten": 4888,
      "poten": 4889,
      "normalen": 4890,
      "wesentlich": 4891,
      "holen": 4892,
      "verantwortlich": 4893,
      "flücht": 4894,
      "september": 4895,
      "fig": 4896,
      "ill": 4897,
      "wes": 4898,
      "zell": 4899,
      "##ille": 4900,
      "##fische": 4901,
      "##prä": 4902,
      "eingesetzt": 4903,
      "##esch": 4904,
      "##auber": 4905,
      "angew": 4906,
      "ausgeb": 4907,
      "reag": 4908,
      "gehabt": 4909,
      "##stellten": 4910,
      "element": 4911,
      "eure": 4912,
      "##eidung": 4913,
      "##markt": 4914,
      "steuern": 4915,
      "gewisse": 4916,
      "35": 4917,
      "dick": 4918,
      "les": 4919,
      "mem": 4920,
      "tu": 4921,
      "algorith": 4922,
      "##ehm": 4923,
      "##amp": 4924,
      "##ingu": 4925,
      "seitdem": 4926,
      "tiefe": 4927,
      "brenn": 4928,
      "gespräch": 4929,
      "gäbe": 4930,
      "mess": 4931,
      "tel": 4932,
      "##nü": 4933,
      "##sver": 4934,
      "##ole": 4935,
      "zut": 4936,
      "unw": 4937,
      "##utt": 4938,
      "mögliche": 4939,
      "einfü": 4940,
      "lied": 4941,
      "landschaft": 4942,
      "##wood": 4943,
      "kurze": 4944,
      "##richtungen": 4945,
      "dauert": 4946,
      "schönen": 4947,
      "unglück": 4948,
      "bieten": 4949,
      "frie": 4950,
      "furcht": 4951,
      "teuer": 4952,
      "##ac": 4953,
      "anim": 4954,
      "wenigen": 4955,
      "vorteil": 4956,
      "##reite": 4957,
      "##ologische": 4958,
      "##ändert": 4959,
      "##aterial": 4960,
      "trend": 4961,
      "mail": 4962,
      "bemerkt": 4963,
      "erkenntnis": 4964,
      "öffentlichkeit": 4965,
      "moleküle": 4966,
      "unterscheiden": 4967,
      "dur": 4968,
      "sl": 4969,
      "tor": 4970,
      "##netz": 4971,
      "##alisten": 4972,
      "schien": 4973,
      "##reie": 4974,
      "##wegs": 4975,
      "müsste": 4976,
      "##flächen": 4977,
      "entworfen": 4978,
      "franc": 4979,
      "arbeiteten": 4980,
      "weißt": 4981,
      "unterschiedlich": 4982,
      "##swesen": 4983,
      "schwester": 4984,
      "diagramm": 4985,
      "##schule": 4986,
      "twitter": 4987,
      "grenze": 4988,
      "nutzt": 4989,
      "rie": 4990,
      "wander": 4991,
      "##heim": 4992,
      "aufhören": 4993,
      "ausb": 4994,
      "##utter": 4995,
      "wellen": 4996,
      "##fügen": 4997,
      "komment": 4998,
      "normale": 4999,
      "erleb": 5000,
      "schaute": 5001,
      "##kehren": 5002,
      "mission": 5003,
      "##dimension": 5004,
      "lustig": 5005,
      "popul": 5006,
      "gewebe": 5007,
      "händen": 5008,
      "mas": 5009,
      "nannte": 5010,
      "setzt": 5011,
      "##bahn": 5012,
      "unend": 5013,
      "aufs": 5014,
      "stau": 5015,
      "washin": 5016,
      "##örper": 5017,
      "block": 5018,
      "flüss": 5019,
      "quanten": 5020,
      "planet": 5021,
      "beantworten": 5022,
      "ki": 5023,
      "mund": 5024,
      "##hel": 5025,
      "##pte": 5026,
      "##pern": 5027,
      "einheit": 5028,
      "einiger": 5029,
      "##unken": 5030,
      "angenommen": 5031,
      "##send": 5032,
      "zeitalter": 5033,
      "erfinden": 5034,
      "viertel": 5035,
      "##gruppe": 5036,
      "entstanden": 5037,
      "wichtigen": 5038,
      "medikament": 5039,
      "geheimnis": 5040,
      "washingt": 5041,
      "##hi": 5042,
      "##macht": 5043,
      "##blichkeit": 5044,
      "umge": 5045,
      "##agement": 5046,
      "lebte": 5047,
      "##istisch": 5048,
      "gras": 5049,
      "krise": 5050,
      "gedanke": 5051,
      "##ständen": 5052,
      "##fähigkeit": 5053,
      "satelliten": 5054,
      "washington": 5055,
      "nas": 5056,
      "sam": 5057,
      "##hält": 5058,
      "##untern": 5059,
      "zucker": 5060,
      "wow": 5061,
      "gehalten": 5062,
      "klu": 5063,
      "##ffer": 5064,
      "##istische": 5065,
      "##problem": 5066,
      "schlechter": 5067,
      "##zusetzen": 5068,
      "radik": 5069,
      "tests": 5070,
      "prim": 5071,
      "schimpansen": 5072,
      "richard": 5073,
      "bie": 5074,
      "bon": 5075,
      "fakten": 5076,
      "gas": 5077,
      "gü": 5078,
      "lernt": 5079,
      "##sal": 5080,
      "##zten": 5081,
      "##schau": 5082,
      "##auern": 5083,
      "##geber": 5084,
      "behalten": 5085,
      "##hlten": 5086,
      "ließen": 5087,
      "mod": 5088,
      "schlagen": 5089,
      "##alent": 5090,
      "##utzung": 5091,
      "code": 5092,
      "minute": 5093,
      "bekamen": 5094,
      "##grö": 5095,
      "angesehen": 5096,
      "bewegungen": 5097,
      "entspricht": 5098,
      "##glieder": 5099,
      "cy": 5100,
      "kle": 5101,
      "kräfte": 5102,
      "##nungs": 5103,
      "beweis": 5104,
      "##etrie": 5105,
      "refle": 5106,
      "wobei": 5107,
      "##aktiv": 5108,
      "körpers": 5109,
      "studieren": 5110,
      "individuen": 5111,
      "##bewesen": 5112,
      "##maschine": 5113,
      "college": 5114,
      "epidem": 5115,
      "nationen": 5116,
      "riesen": 5117,
      "##pfe": 5118,
      "erkrank": 5119,
      "##igsten": 5120,
      "aufst": 5121,
      "##ram": 5122,
      "überprü": 5123,
      "kog": 5124,
      "konse": 5125,
      "##heorie": 5126,
      "verbrau": 5127,
      "verbreiten": 5128,
      "gegensatz": 5129,
      "verlangen": 5130,
      "toilet": 5131,
      "##ica": 5132,
      "schlechten": 5133,
      "syn": 5134,
      "##pret": 5135,
      "erlebt": 5136,
      "erkannte": 5137,
      "erwachsenen": 5138,
      "website": 5139,
      "reduzieren": 5140,
      "domin": 5141,
      "jul": 5142,
      "zog": 5143,
      "##lös": 5144,
      "##yse": 5145,
      "##eting": 5146,
      "kosm": 5147,
      "kooper": 5148,
      "hergestellt": 5149,
      "musst": 5150,
      "##vert": 5151,
      "wahre": 5152,
      "##zeugen": 5153,
      "parad": 5154,
      "politiker": 5155,
      "hallo": 5156,
      "bele": 5157,
      "dutzen": 5158,
      "len": 5159,
      "pfer": 5160,
      "##mon": 5161,
      "##va": 5162,
      "##itten": 5163,
      "ungewöhn": 5164,
      "school": 5165,
      "##ischem": 5166,
      "leg": 5167,
      "##ründet": 5168,
      "gelesen": 5169,
      "##rid": 5170,
      "entwickelte": 5171,
      "insel": 5172,
      "stammt": 5173,
      "starke": 5174,
      "zugänglich": 5175,
      "##fahrt": 5176,
      "positiv": 5177,
      "intu": 5178,
      "##karte": 5179,
      "abhängig": 5180,
      "gehirne": 5181,
      "astr": 5182,
      "##meister": 5183,
      "##pft": 5184,
      "schock": 5185,
      "##utze": 5186,
      "##hler": 5187,
      "vieler": 5188,
      "entschul": 5189,
      "weltraum": 5190,
      "sequenz": 5191,
      "meiste": 5192,
      "erscheinen": 5193,
      "##mäßig": 5194,
      "##pagne": 5195,
      "verhältnis": 5196,
      "prototyp": 5197,
      "brasilien": 5198,
      "kognit": 5199,
      "45": 5200,
      "ap": 5201,
      "dat": 5202,
      "echten": 5203,
      "foss": 5204,
      "nan": 5205,
      "##ban": 5206,
      "##fil": 5207,
      "##asste": 5208,
      "##terie": 5209,
      "aufgew": 5210,
      "aufbauen": 5211,
      "mitarbeiter": 5212,
      "##ologe": 5213,
      "##igend": 5214,
      "gift": 5215,
      "abschluss": 5216,
      "##ologischen": 5217,
      "brauche": 5218,
      "brauchten": 5219,
      "meist": 5220,
      "starten": 5221,
      "unbek": 5222,
      "##wärt": 5223,
      "träume": 5224,
      "entdeckung": 5225,
      "veröffentlich": 5226,
      "schlafen": 5227,
      "diskut": 5228,
      "zweck": 5229,
      "99": 5230,
      "fischer": 5231,
      "open": 5232,
      "##ahe": 5233,
      "##afrika": 5234,
      "##gren": 5235,
      "##vard": 5236,
      "##onstr": 5237,
      "##llekt": 5238,
      "spannen": 5239,
      "gehören": 5240,
      "##istischen": 5241,
      "brachten": 5242,
      "dran": 5243,
      "elef": 5244,
      "inneren": 5245,
      "##ordnung": 5246,
      "##äuse": 5247,
      "repar": 5248,
      "methoden": 5249,
      "fördern": 5250,
      "australien": 5251,
      "show": 5252,
      "lt": 5253,
      "##fach": 5254,
      "##asi": 5255,
      "eindeut": 5256,
      "##ichts": 5257,
      "auftau": 5258,
      "mangel": 5259,
      "imp": 5260,
      "flag": 5261,
      "##riften": 5262,
      "beschlossen": 5263,
      "gemeinden": 5264,
      "symm": 5265,
      "gesundheitswesen": 5266,
      "medizinische": 5267,
      "beinahe": 5268,
      "trägt": 5269,
      "zählen": 5270,
      "dramat": 5271,
      "mittleren": 5272,
      "bezahlt": 5273,
      "cent": 5274,
      "kart": 5275,
      "passt": 5276,
      "vi": 5277,
      "wetter": 5278,
      "##ischt": 5279,
      "überein": 5280,
      "überlegen": 5281,
      "nachts": 5282,
      "##ulieren": 5283,
      "tex": 5284,
      "##komme": 5285,
      "hinsicht": 5286,
      "interpret": 5287,
      "gefahren": 5288,
      "##gewalt": 5289,
      "gestorben": 5290,
      "linien": 5291,
      "besondere": 5292,
      "grafik": 5293,
      "fuhr": 5294,
      "mikroben": 5295,
      "beinhal": 5296,
      "aufregend": 5297,
      "internationale": 5298,
      "##gelegt": 5299,
      "fantastisch": 5300,
      "##vention": 5301,
      ".,": 5302,
      "feu": 5303,
      "off": 5304,
      "wik": 5305,
      "##gas": 5306,
      "##ierer": 5307,
      "ansicht": 5308,
      "lebewesen": 5309,
      "entsprechen": 5310,
      "elemente": 5311,
      "buchsta": 5312,
      "wohlstand": 5313,
      "##zentrum": 5314,
      "##fragen": 5315,
      "schwarzen": 5316,
      "##führung": 5317,
      "moderne": 5318,
      "verbrachte": 5319,
      "hypot": 5320,
      "voran": 5321,
      "demonstr": 5322,
      "##ffekt": 5323,
      "entgegen": 5324,
      "##sah": 5325,
      "##stellungen": 5326,
      "beschrän": 5327,
      "bekämp": 5328,
      "##elev": 5329,
      "organismen": 5330,
      "generationen": 5331,
      "netzwerke": 5332,
      "elektrizität": 5333,
      "tiefer": 5334,
      "zuschauer": 5335,
      "nötig": 5336,
      "francis": 5337,
      "atem": 5338,
      "aspekt": 5339,
      "cr": 5340,
      "##bas": 5341,
      "##kn": 5342,
      "##cks": 5343,
      "ausmaß": 5344,
      "interessen": 5345,
      "##bares": 5346,
      "wissenschaftlichen": 5347,
      "hotel": 5348,
      "##phone": 5349,
      "halbe": 5350,
      "isol": 5351,
      "milch": 5352,
      "beschäftigen": 5353,
      "##amerika": 5354,
      "details": 5355,
      "ros": 5356,
      "wisst": 5357,
      "##dru": 5358,
      "##grü": 5359,
      "##ton": 5360,
      "##för": 5361,
      "##von": 5362,
      "geändert": 5363,
      "abstra": 5364,
      "##kosten": 5365,
      "##werden": 5366,
      "existenz": 5367,
      "##schland": 5368,
      "kurzen": 5369,
      "qual": 5370,
      "vergrö": 5371,
      "garten": 5372,
      "kriegen": 5373,
      "viren": 5374,
      "dunkle": 5375,
      "geräusch": 5376,
      "ägyp": 5377,
      "3d": 5378,
      "fängt": 5379,
      "witz": 5380,
      "zauber": 5381,
      "##dy": 5382,
      "##kräfte": 5383,
      "##jahr": 5384,
      "##ones": 5385,
      "ansp": 5386,
      "##amt": 5387,
      "blieb": 5388,
      "theater": 5389,
      "streit": 5390,
      "chemik": 5391,
      "kollektiv": 5392,
      "maßstab": 5393,
      "internationalen": 5394,
      "wolken": 5395,
      "##hyth": 5396,
      "hem": 5397,
      "##urf": 5398,
      "beweise": 5399,
      "vorfahren": 5400,
      "spir": 5401,
      "lebten": 5402,
      "besitz": 5403,
      "platt": 5404,
      "student": 5405,
      "natürlichen": 5406,
      "ruh": 5407,
      "beobachtet": 5408,
      "komplexe": 5409,
      "erstaunliche": 5410,
      "zitat": 5411,
      "grundlegende": 5412,
      "drüben": 5413,
      "600": 5414,
      "?“": 5415,
      "ew": 5416,
      "lass": 5417,
      "pan": 5418,
      "singen": 5419,
      "top": 5420,
      "tonnen": 5421,
      "##wagen": 5422,
      "##ino": 5423,
      "weile": 5424,
      "real": 5425,
      "darstellen": 5426,
      "konkur": 5427,
      "geschickt": 5428,
      "blind": 5429,
      "##gesell": 5430,
      "##med": 5431,
      "erwart": 5432,
      "folgt": 5433,
      "##loss": 5434,
      "anwenden": 5435,
      "##möglichkeiten": 5436,
      "vertraut": 5437,
      "zerstören": 5438,
      "einstein": 5439,
      "steigt": 5440,
      "wahrnehmung": 5441,
      "serv": 5442,
      "ve": 5443,
      "##0ern": 5444,
      "ermut": 5445,
      "beweisen": 5446,
      "anteil": 5447,
      "start": 5448,
      "umfeld": 5449,
      "##rechte": 5450,
      "sparen": 5451,
      "verbindet": 5452,
      "selbstverständ": 5453,
      "##teln": 5454,
      "beschloss": 5455,
      "willst": 5456,
      "##gehend": 5457,
      "bibl": 5458,
      "helden": 5459,
      "##aturen": 5460,
      "ähnliche": 5461,
      "neuro": 5462,
      "definition": 5463,
      "emotionen": 5464,
      "kaffee": 5465,
      "dach": 5466,
      "letzt": 5467,
      "##ld": 5468,
      "##ox": 5469,
      "versp": 5470,
      "spät": 5471,
      "verwende": 5472,
      "weiße": 5473,
      "brill": 5474,
      "fälle": 5475,
      "rote": 5476,
      "##glied": 5477,
      "gedicht": 5478,
      "kriegs": 5479,
      "treten": 5480,
      "erklärung": 5481,
      "ausgest": 5482,
      "doktor": 5483,
      "zerstört": 5484,
      "traditionellen": 5485,
      "jahrzehnt": 5486,
      "enorme": 5487,
      "##iothe": 5488,
      "deutschland": 5489,
      "entwicklungsländern": 5490,
      "dns": 5491,
      "got": 5492,
      "mic": 5493,
      "ven": 5494,
      "wagen": 5495,
      "zuzu": 5496,
      "##hre": 5497,
      "ersetzen": 5498,
      "schatten": 5499,
      "überfl": 5500,
      "abl": 5501,
      "besuchen": 5502,
      "##klen": 5503,
      "spielte": 5504,
      "größen": 5505,
      "beispielsweise": 5506,
      "toten": 5507,
      "urs": 5508,
      "install": 5509,
      "folgende": 5510,
      "architekten": 5511,
      "übrig": 5512,
      "definieren": 5513,
      "erscheint": 5514,
      "kerl": 5515,
      "verfügbar": 5516,
      "verring": 5517,
      "pakistan": 5518,
      "grie": 5519,
      "ille": 5520,
      "kate": 5521,
      "tom": 5522,
      "wuchs": 5523,
      "##frau": 5524,
      "##stung": 5525,
      "##ägt": 5526,
      "erstellt": 5527,
      "bedenken": 5528,
      "anl": 5529,
      "annehmen": 5530,
      "umgeben": 5531,
      "##usion": 5532,
      "darunter": 5533,
      "wissens": 5534,
      "bestät": 5535,
      "arbeitspl": 5536,
      "sitz": 5537,
      "jedenfalls": 5538,
      "##nahm": 5539,
      "bemü": 5540,
      "intellekt": 5541,
      "nachbarn": 5542,
      "strategie": 5543,
      "setzte": 5544,
      "gefällt": 5545,
      "erwähnt": 5546,
      "times": 5547,
      "##bewegung": 5548,
      "teles": 5549,
      "ac": 5550,
      "live": 5551,
      "verab": 5552,
      "schaden": 5553,
      "aufgebaut": 5554,
      "##rah": 5555,
      "##oler": 5556,
      "##trieb": 5557,
      "##schließlich": 5558,
      "world": 5559,
      "quelle": 5560,
      "behinder": 5561,
      "schuld": 5562,
      "verdopp": 5563,
      "schwierigkeiten": 5564,
      "##fordert": 5565,
      "freundin": 5566,
      "##besch": 5567,
      "zeichnen": 5568,
      "aufzubauen": 5569,
      "##wirkung": 5570,
      "allgemeinen": 5571,
      "konflik": 5572,
      "nützlich": 5573,
      "mexiko": 5574,
      "gre": 5575,
      "pingu": 5576,
      "##uhr": 5577,
      "##nä": 5578,
      "##skop": 5579,
      "##frei": 5580,
      "##jem": 5581,
      "##eiter": 5582,
      "##schrift": 5583,
      "betroffen": 5584,
      "anrei": 5585,
      "aufnahme": 5586,
      "werbung": 5587,
      "kannte": 5588,
      "wurz": 5589,
      "teen": 5590,
      "interaktion": 5591,
      "heißen": 5592,
      "solange": 5593,
      "freien": 5594,
      "christ": 5595,
      "harvard": 5596,
      "leistungs": 5597,
      "enorm": 5598,
      "rake": 5599,
      "ergibt": 5600,
      "-,": 5601,
      "lager": 5602,
      "##lad": 5603,
      "##uß": 5604,
      "##tät": 5605,
      "##mord": 5606,
      "##kreis": 5607,
      "##passt": 5608,
      "##ancen": 5609,
      "zusätz": 5610,
      "inhalt": 5611,
      "diesel": 5612,
      "schätzen": 5613,
      "##recher": 5614,
      "vieles": 5615,
      "mehrheit": 5616,
      "müssten": 5617,
      "grundsätzlich": 5618,
      "zieht": 5619,
      "irgendjem": 5620,
      "kurs": 5621,
      "quasi": 5622,
      "höre": 5623,
      "bereichen": 5624,
      "situationen": 5625,
      "geistes": 5626,
      "##sprache": 5627,
      "inspiriert": 5628,
      "schrecklich": 5629,
      "unabhängig": 5630,
      "italien": 5631,
      "korruption": 5632,
      ".«": 5633,
      "##rieren": 5634,
      "##zig": 5635,
      "##vin": 5636,
      "vermitteln": 5637,
      "konfront": 5638,
      "durchs": 5639,
      "##gerät": 5640,
      "arbeiter": 5641,
      "seid": 5642,
      "solcher": 5643,
      "vermeiden": 5644,
      "fähig": 5645,
      "schwieriger": 5646,
      "kulturen": 5647,
      "bereiche": 5648,
      "fahrrad": 5649,
      "persönliche": 5650,
      "sicherheits": 5651,
      "##mensionen": 5652,
      "signal": 5653,
      "operation": 5654,
      "##ds": 5655,
      "##nern": 5656,
      "##war": 5657,
      "##ymp": 5658,
      "##eise": 5659,
      "erlaub": 5660,
      "sonder": 5661,
      "stock": 5662,
      "##utu": 5663,
      "wäl": 5664,
      "seele": 5665,
      "stuhl": 5666,
      "roh": 5667,
      "süß": 5668,
      "##züglich": 5669,
      "temp": 5670,
      "positive": 5671,
      "verbessert": 5672,
      "feind": 5673,
      "##ographie": 5674,
      "diskussion": 5675,
      "bund": 5676,
      "mr": 5677,
      "nett": 5678,
      "rief": 5679,
      "zahn": 5680,
      "##eben": 5681,
      "##ember": 5682,
      "##itiv": 5683,
      "##dete": 5684,
      "##isse": 5685,
      "ausgel": 5686,
      "##ehren": 5687,
      "##ago": 5688,
      "vorzu": 5689,
      "vorne": 5690,
      "darwin": 5691,
      "abw": 5692,
      "stufe": 5693,
      "gefallen": 5694,
      "wirtschaftlichen": 5695,
      "lehren": 5696,
      "hilfs": 5697,
      "vögel": 5698,
      "entdeckte": 5699,
      "gebeten": 5700,
      "zivilisation": 5701,
      "human": 5702,
      "buchstaben": 5703,
      "teu": 5704,
      "##ielle": 5705,
      "##ston": 5706,
      "zuhören": 5707,
      "##rot": 5708,
      "##reif": 5709,
      "großmutter": 5710,
      "##endungen": 5711,
      "versteht": 5712,
      "zwang": 5713,
      "verlust": 5714,
      "langer": 5715,
      "langfrist": 5716,
      "untersucht": 5717,
      "chemie": 5718,
      "blauen": 5719,
      "##versorgung": 5720,
      "durchschnitt": 5721,
      "faszinierend": 5722,
      "dahinter": 5723,
      "französ": 5724,
      "hind": 5725,
      "hell": 5726,
      "krä": 5727,
      "lungen": 5728,
      "##dige": 5729,
      "##geln": 5730,
      "##kung": 5731,
      "eink": 5732,
      "##äne": 5733,
      "##ktionen": 5734,
      "impl": 5735,
      "menschlicher": 5736,
      "genü": 5737,
      "kongress": 5738,
      "gelöst": 5739,
      "handel": 5740,
      "##gruppen": 5741,
      "bauten": 5742,
      "kümmer": 5743,
      "vorhersagen": 5744,
      "welchem": 5745,
      "persönlichen": 5746,
      "transpar": 5747,
      "##fähig": 5748,
      "digital": 5749,
      "erwachsene": 5750,
      "molekül": 5751,
      "wechsel": 5752,
      "digitalen": 5753,
      "auswahl": 5754,
      "notwendig": 5755,
      "jan": 5756,
      "tur": 5757,
      "wahn": 5758,
      "##tä": 5759,
      "##ozi": 5760,
      "##fir": 5761,
      "initi": 5762,
      "verteilt": 5763,
      "##tere": 5764,
      "ums": 5765,
      "entstand": 5766,
      "hinten": 5767,
      "verstehe": 5768,
      "passw": 5769,
      "heiß": 5770,
      "worauf": 5771,
      "führungs": 5772,
      "##besonder": 5773,
      "risiken": 5774,
      "mittag": 5775,
      "verblü": 5776,
      "achten": 5777,
      "brücke": 5778,
      "rennen": 5779,
      "rhyth": 5780,
      "up": 5781,
      "##oc": 5782,
      "eingeb": 5783,
      "##ire": 5784,
      "##aria": 5785,
      "soviel": 5786,
      "##ets": 5787,
      "aussage": 5788,
      "##ielen": 5789,
      "rechen": 5790,
      "ledig": 5791,
      "gehol": 5792,
      "herein": 5793,
      "herren": 5794,
      "lebenser": 5795,
      "flu": 5796,
      "besseres": 5797,
      "insbesonder": 5798,
      "rollen": 5799,
      "##qualität": 5800,
      "univer": 5801,
      "grünen": 5802,
      "anwendung": 5803,
      "pfund": 5804,
      "##linge": 5805,
      "westlichen": 5806,
      "unterstützt": 5807,
      "transform": 5808,
      "potential": 5809,
      "##gro": 5810,
      "##ng": 5811,
      "##ktes": 5812,
      "austau": 5813,
      "##itik": 5814,
      "erm": 5815,
      "erhe": 5816,
      "aufnehmen": 5817,
      "wofür": 5818,
      "##weile": 5819,
      "##ulen": 5820,
      "##herr": 5821,
      "chip": 5822,
      "##meter": 5823,
      "grundle": 5824,
      "##fernen": 5825,
      "langweil": 5826,
      "brut": 5827,
      "atmen": 5828,
      "feststellen": 5829,
      "anderson": 5830,
      "erinnerungen": 5831,
      "anti": 5832,
      "speziell": 5833,
      "widersp": 5834,
      "instrument": 5835,
      "irgendjemand": 5836,
      "lediglich": 5837,
      "baut": 5838,
      "eier": 5839,
      "enden": 5840,
      "halt": 5841,
      "skla": 5842,
      "##oo": 5843,
      "##stimmen": 5844,
      "##tend": 5845,
      "gegend": 5846,
      "standen": 5847,
      "##erne": 5848,
      "gehör": 5849,
      "entfernen": 5850,
      "##ulpt": 5851,
      "besitzt": 5852,
      "lieb": 5853,
      "gerü": 5854,
      "chic": 5855,
      "beschrieben": 5856,
      "bildungs": 5857,
      "komponen": 5858,
      "grüne": 5859,
      "synt": 5860,
      "veranst": 5861,
      "skulpt": 5862,
      "tausenden": 5863,
      "##äusern": 5864,
      "widerstand": 5865,
      "stärke": 5866,
      "##sprung": 5867,
      "lokalen": 5868,
      "jahrzehnte": 5869,
      "stammzellen": 5870,
      "paul": 5871,
      "kontinent": 5872,
      "brief": 5873,
      "eindeutig": 5874,
      "dieselben": 5875,
      "insbesondere": 5876,
      "23": 5877,
      "air": 5878,
      "ban": 5879,
      "sur": 5880,
      "##ndung": 5881,
      "##star": 5882,
      "##kton": 5883,
      "meinte": 5884,
      "hierher": 5885,
      "##örungen": 5886,
      "##ppt": 5887,
      "gewohn": 5888,
      "##gesetz": 5889,
      "##flug": 5890,
      "befrei": 5891,
      "momentan": 5892,
      "##issionen": 5893,
      "süden": 5894,
      "verhand": 5895,
      "berührt": 5896,
      "etc": 5897,
      "echtzeit": 5898,
      "galaxie": 5899,
      "fabrik": 5900,
      "beinhaltet": 5901,
      "75": 5902,
      "##hese": 5903,
      "##digt": 5904,
      "##ässt": 5905,
      "##hrop": 5906,
      "##itation": 5907,
      "##denkt": 5908,
      "schen": 5909,
      "haar": 5910,
      "stahl": 5911,
      "##reibung": 5912,
      "konserv": 5913,
      "geschä": 5914,
      "verbren": 5915,
      "##olly": 5916,
      "##barer": 5917,
      "phot": 5918,
      "betrachte": 5919,
      "informations": 5920,
      "##ida": 5921,
      "komplet": 5922,
      "wirtschafts": 5923,
      "wirtschaftliche": 5924,
      "##ießend": 5925,
      "scheinbar": 5926,
      "erhielt": 5927,
      "akadem": 5928,
      "gemeinsame": 5929,
      "junger": 5930,
      "wüste": 5931,
      "##bilden": 5932,
      "alternative": 5933,
      "kombination": 5934,
      "hunger": 5935,
      "tumor": 5936,
      "bietet": 5937,
      "james": 5938,
      "rum": 5939,
      "senden": 5940,
      "wh": 5941,
      "##hes": 5942,
      "##ain": 5943,
      "##osen": 5944,
      "##wen": 5945,
      "##isationen": 5946,
      "vorzustellen": 5947,
      "##weite": 5948,
      "##ätter": 5949,
      "stehe": 5950,
      "besagt": 5951,
      "besessen": 5952,
      "berichten": 5953,
      "kampagne": 5954,
      "meister": 5955,
      "verknü": 5956,
      "bauch": 5957,
      "durchschnittliche": 5958,
      "gespielt": 5959,
      "kompliziert": 5960,
      "gerechtigkeit": 5961,
      "enthält": 5962,
      "bedürfnisse": 5963,
      "youtu": 5964,
      "george": 5965,
      "erlebnis": 5966,
      "chemikalien": 5967,
      "22": 5968,
      "koch": 5969,
      "##zz": 5970,
      "##kungen": 5971,
      "zufall": 5972,
      "anh": 5973,
      "##igem": 5974,
      "ausgew": 5975,
      "übernehmen": 5976,
      "span": 5977,
      "menschliches": 5978,
      "##erseits": 5979,
      "wirkliche": 5980,
      "gemü": 5981,
      "malaria": 5982,
      "tour": 5983,
      "##ängst": 5984,
      "verschm": 5985,
      "##boden": 5986,
      "winter": 5987,
      "sowas": 5988,
      "blaue": 5989,
      "ozeane": 5990,
      "molekul": 5991,
      "erdbe": 5992,
      "kreieren": 5993,
      "liefern": 5994,
      "selbstverständlich": 5995,
      "youtube": 5996,
      "aspe": 5997,
      "bur": 5998,
      "hunde": 5999,
      "seht": 6000,
      "##gibt": 6001,
      "eingesch": 6002,
      "##ird": 6003,
      "##einhalb": 6004,
      "##bern": 6005,
      "vergewalt": 6006,
      "anp": 6007,
      "anschein": 6008,
      "weihn": 6009,
      "prob": 6010,
      "prop": 6011,
      "##reisen": 6012,
      "jeweil": 6013,
      "blumen": 6014,
      "##werfen": 6015,
      "weiterer": 6016,
      "##rimin": 6017,
      "veränderte": 6018,
      "2008": 6019,
      "hilf": 6020,
      "ernä": 6021,
      "anstren": 6022,
      "drauf": 6023,
      "charles": 6024,
      "gegründet": 6025,
      "webseite": 6026,
      "erhöhen": 6027,
      "statistiken": 6028,
      "äußerst": 6029,
      "frustr": 6030,
      "##wechsel": 6031,
      "bibliothe": 6032,
      "teufel": 6033,
      "stern": 6034,
      "einiges": 6035,
      "##öd": 6036,
      "springen": 6037,
      "proz": 6038,
      "mengen": 6039,
      "unterrichten": 6040,
      "##uls": 6041,
      "##ektor": 6042,
      "##ücken": 6043,
      "erfindung": 6044,
      "##iveau": 6045,
      "leichter": 6046,
      "überrasch": 6047,
      "##staat": 6048,
      "gelebt": 6049,
      "überwinden": 6050,
      "signale": 6051,
      "##verbrauch": 6052,
      "afrikanischen": 6053,
      "##geregt": 6054,
      "lächeln": 6055,
      "akzeptieren": 6056,
      "sympt": 6057,
      "pflege": 6058,
      "francisco": 6059,
      "drücken": 6060,
      "gig": 6061,
      "kabel": 6062,
      "mart": 6063,
      "##nei": 6064,
      "##bür": 6065,
      "##bet": 6066,
      "##burg": 6067,
      "##wn": 6068,
      "##fig": 6069,
      "##erung": 6070,
      "##stud": 6071,
      "##schm": 6072,
      "schätz": 6073,
      "##ckten": 6074,
      "manchen": 6075,
      "manip": 6076,
      "##anger": 6077,
      "zweifel": 6078,
      "##ringe": 6079,
      "momente": 6080,
      "##gert": 6081,
      "glaubte": 6082,
      "verstär": 6083,
      "gegenwart": 6084,
      "grundlage": 6085,
      "heisst": 6086,
      "##haften": 6087,
      "wirtschaftsw": 6088,
      "dimensionen": 6089,
      "trocken": 6090,
      "gesamt": 6091,
      "aktivitäten": 6092,
      "billionen": 6093,
      "##sprozess": 6094,
      "trinken": 6095,
      "nasa": 6096,
      "fi": 6097,
      "länd": 6098,
      "##ael": 6099,
      "##akte": 6100,
      "##umenten": 6101,
      "##wenden": 6102,
      "##int": 6103,
      "##ores": 6104,
      "uni": 6105,
      "anstelle": 6106,
      "aufbau": 6107,
      "##spar": 6108,
      "absicht": 6109,
      "einfaches": 6110,
      "gewiss": 6111,
      "teilweise": 6112,
      "erzie": 6113,
      "gedächtnis": 6114,
      "magnet": 6115,
      "küste": 6116,
      "wertvoll": 6117,
      "großartigen": 6118,
      "programme": 6119,
      "##völkerung": 6120,
      "verwandelt": 6121,
      "fasziniert": 6122,
      "kenia": 6123,
      "ast": 6124,
      "nase": 6125,
      "wüs": 6126,
      "##fassen": 6127,
      "einstellung": 6128,
      "##ehl": 6129,
      "unteren": 6130,
      "untersch": 6131,
      "geschlossen": 6132,
      "steve": 6133,
      "##adel": 6134,
      "gemäl": 6135,
      "begrü": 6136,
      "zeigten": 6137,
      "funktionierte": 6138,
      "offenbar": 6139,
      "unglaublichen": 6140,
      "medizinischen": 6141,
      "innovationen": 6142,
      "südafrika": 6143,
      "jahrzehnten": 6144,
      "terrorismus": 6145,
      "digitale": 6146,
      "ereignis": 6147,
      "gegenseitig": 6148,
      "abt": 6149,
      "kochen": 6150,
      "ration": 6151,
      "sar": 6152,
      "täu": 6153,
      "##sh": 6154,
      "##mehr": 6155,
      "##kom": 6156,
      "##unk": 6157,
      "##unkten": 6158,
      "##alte": 6159,
      "##berg": 6160,
      "schritte": 6161,
      "anhand": 6162,
      "anerken": 6163,
      "stad": 6164,
      "stimul": 6165,
      "##rag": 6166,
      "überqu": 6167,
      "vorder": 6168,
      "lektion": 6169,
      "##ruh": 6170,
      "blatt": 6171,
      "gebiete": 6172,
      "##mechan": 6173,
      "folie": 6174,
      "##losigkeit": 6175,
      "bedarf": 6176,
      "dipl": 6177,
      "farb": 6178,
      "städt": 6179,
      "gesichter": 6180,
      "##edia": 6181,
      "##arbeitung": 6182,
      "merken": 6183,
      "lokale": 6184,
      "literatur": 6185,
      "romant": 6186,
      "ursprünglich": 6187,
      "überraschend": 6188,
      "gewählt": 6189,
      "säuget": 6190,
      "froh": 6191,
      "chicago": 6192,
      "cen": 6193,
      "gt": 6194,
      "hing": 6195,
      "leiten": 6196,
      "relev": 6197,
      "wach": 6198,
      "##hte": 6199,
      "##illen": 6200,
      "##tum": 6201,
      "##inken": 6202,
      "##asie": 6203,
      "bezeichnen": 6204,
      "alex": 6205,
      "stir": 6206,
      "unsicher": 6207,
      "damen": 6208,
      "ausges": 6209,
      "##bevölkerung": 6210,
      "vorteile": 6211,
      "realen": 6212,
      "lebe": 6213,
      "zeitung": 6214,
      "##forschung": 6215,
      "verbrechen": 6216,
      "##gesamt": 6217,
      "glü": 6218,
      "welten": 6219,
      "##zipl": 6220,
      "##räume": 6221,
      "bekannten": 6222,
      "erneuer": 6223,
      "innere": 6224,
      "baute": 6225,
      "führer": 6226,
      "fehlen": 6227,
      "jener": 6228,
      "alters": 6229,
      "##gegangen": 6230,
      "erweitern": 6231,
      "geburtstag": 6232,
      "achse": 6233,
      "automatisch": 6234,
      "russland": 6235,
      "gottes": 6236,
      "bundes": 6237,
      "immun": 6238,
      "tanzen": 6239,
      "##ron": 6240,
      "##ging": 6241,
      "##ender": 6242,
      "##ünde": 6243,
      "##arr": 6244,
      "bekomme": 6245,
      "##igste": 6246,
      "##osh": 6247,
      "##abet": 6248,
      "wirkung": 6249,
      "##gerung": 6250,
      "sternen": 6251,
      "korre": 6252,
      "rufen": 6253,
      "kostenlos": 6254,
      "##ifiz": 6255,
      "speziellen": 6256,
      "männchen": 6257,
      "jährige": 6258,
      "fortschritte": 6259,
      "prinzipien": 6260,
      "biologische": 6261,
      "profession": 6262,
      "ingenieur": 6263,
      "##stoffen": 6264,
      "kirche": 6265,
      "metapher": 6266,
      "elefanten": 6267,
      "ba": 6268,
      "böse": 6269,
      "göt": 6270,
      "tab": 6271,
      "völker": 6272,
      "##up": 6273,
      "##ih": 6274,
      "##erin": 6275,
      "##chtet": 6276,
      "##äum": 6277,
      "zusätzlich": 6278,
      "##hrung": 6279,
      "##gegeben": 6280,
      "unfall": 6281,
      "##deten": 6282,
      "stür": 6283,
      "##recken": 6284,
      "michael": 6285,
      "zweimal": 6286,
      "gebraucht": 6287,
      "phase": 6288,
      "fährt": 6289,
      "falschen": 6290,
      "ansieht": 6291,
      "kameras": 6292,
      "institution": 6293,
      "2010": 6294,
      "untersuchung": 6295,
      "behaupten": 6296,
      "##unternehmen": 6297,
      "ip": 6298,
      "misch": 6299,
      "mio": 6300,
      "sing": 6301,
      "skel": 6302,
      "##ward": 6303,
      "##tele": 6304,
      "##arkt": 6305,
      "##achter": 6306,
      "schüt": 6307,
      "##ley": 6308,
      "##legt": 6309,
      "wieviel": 6310,
      "arz": 6311,
      "##amour": 6312,
      "dargestellt": 6313,
      "amaz": 6314,
      "durchführen": 6315,
      "bericht": 6316,
      "##chnologie": 6317,
      "zusammenge": 6318,
      "landen": 6319,
      "woran": 6320,
      "194": 6321,
      "anfing": 6322,
      "garant": 6323,
      "interessantes": 6324,
      "##findet": 6325,
      "##linie": 6326,
      "soweit": 6327,
      "dauerte": 6328,
      "vorstellungen": 6329,
      "perfekte": 6330,
      "angeles": 6331,
      "##cyc": 6332,
      "wettbewerb": 6333,
      "nigeria": 6334,
      "aufgewachsen": 6335,
      "[\"": 6336,
      "moch": 6337,
      "ohren": 6338,
      "##gü": 6339,
      "##nütz": 6340,
      "##iche": 6341,
      "##ison": 6342,
      "##isierte": 6343,
      "umher": 6344,
      "##andid": 6345,
      "##önt": 6346,
      "vorl": 6347,
      "rech": 6348,
      "##see": 6349,
      "##ney": 6350,
      "hinunter": 6351,
      "schlei": 6352,
      "##äufer": 6353,
      "##ahnen": 6354,
      "gemeinschaften": 6355,
      "löcher": 6356,
      "glücklicherweise": 6357,
      "##krise": 6358,
      "kapitel": 6359,
      "adam": 6360,
      "##wissenschaften": 6361,
      "weshalb": 6362,
      "micro": 6363,
      "aktion": 6364,
      "lügen": 6365,
      "mama": 6366,
      "okt": 6367,
      "rett": 6368,
      "tit": 6369,
      "##richtet": 6370,
      "##ehung": 6371,
      "stä": 6372,
      "unterricht": 6373,
      "unterhaltung": 6374,
      "##male": 6375,
      "##bstoff": 6376,
      "gericht": 6377,
      "dumm": 6378,
      "##flü": 6379,
      "chancen": 6380,
      "##sterben": 6381,
      "##verhalten": 6382,
      "##opf": 6383,
      "##gelassen": 6384,
      "##zial": 6385,
      "einzeln": 6386,
      "verlang": 6387,
      "gemeinsamen": 6388,
      "##probieren": 6389,
      "verglichen": 6390,
      "fingen": 6391,
      "afrikas": 6392,
      "organisieren": 6393,
      "führten": 6394,
      "beobachte": 6395,
      "stücke": 6396,
      "verschwunden": 6397,
      "sichtbar": 6398,
      "##drückt": 6399,
      "regierungs": 6400,
      "moralische": 6401,
      "stoppen": 6402,
      "flex": 6403,
      "resultat": 6404,
      "teenager": 6405,
      "amazon": 6406,
      "dia": 6407,
      "räume": 6408,
      "##lu": 6409,
      "##karten": 6410,
      "##phen": 6411,
      "##ines": 6412,
      "##ierungen": 6413,
      "versagen": 6414,
      "##urce": 6415,
      "ausstellung": 6416,
      "spann": 6417,
      "beibringen": 6418,
      "##zepte": 6419,
      "##abl": 6420,
      "##tritt": 6421,
      "berück": 6422,
      "##artige": 6423,
      "glamour": 6424,
      "quer": 6425,
      "##quelle": 6426,
      "##noten": 6427,
      "antib": 6428,
      "zehnt": 6429,
      "status": 6430,
      "kanada": 6431,
      "armee": 6432,
      "schicksal": 6433,
      "chinesische": 6434,
      "präsentation": 6435,
      "asien": 6436,
      "sogenannte": 6437,
      "epidemie": 6438,
      "genügend": 6439,
      "dreie": 6440,
      "günst": 6441,
      "ost": 6442,
      "py": 6443,
      "treiben": 6444,
      "ul": 6445,
      "wid": 6446,
      "##kö": 6447,
      "##fakt": 6448,
      "annahme": 6449,
      "anony": 6450,
      "stan": 6451,
      "aussch": 6452,
      "##menge": 6453,
      "ener": 6454,
      "darstellung": 6455,
      "##ätzt": 6456,
      "besorgt": 6457,
      "##same": 6458,
      "trafen": 6459,
      "##ics": 6460,
      "starben": 6461,
      "computern": 6462,
      "##nommen": 6463,
      "wenigstens": 6464,
      "global": 6465,
      "bemerkte": 6466,
      "nutzung": 6467,
      "sorg": 6468,
      "nachhaltigkeit": 6469,
      "physikal": 6470,
      "mittlerweile": 6471,
      "##jährigen": 6472,
      "trug": 6473,
      "merkwür": 6474,
      "center": 6475,
      "cor": 6476,
      "hielten": 6477,
      "klet": 6478,
      "rö": 6479,
      "##dlichen": 6480,
      "##täu": 6481,
      "##bungen": 6482,
      "##fre": 6483,
      "##punkte": 6484,
      "##vir": 6485,
      "##test": 6486,
      "##anze": 6487,
      "##atik": 6488,
      "unmittel": 6489,
      "ausser": 6490,
      "repu": 6491,
      "alltag": 6492,
      "genießen": 6493,
      "samen": 6494,
      "gebrochen": 6495,
      "male": 6496,
      "##lernen": 6497,
      "##reiche": 6498,
      "worum": 6499,
      "erwar": 6500,
      "magie": 6501,
      "##gangs": 6502,
      "nukle": 6503,
      "##zeigen": 6504,
      "beeindru": 6505,
      "komplexen": 6506,
      "entscheidend": 6507,
      "antwortete": 6508,
      "##sprach": 6509,
      "tiefen": 6510,
      "ernsthaft": 6511,
      "sorge": 6512,
      "hyper": 6513,
      "##pflanzen": 6514,
      "erweiter": 6515,
      "##bücher": 6516,
      "treib": 6517,
      "geholfen": 6518,
      "dien": 6519,
      "ev": 6520,
      "kalt": 6521,
      "line": 6522,
      "taschen": 6523,
      "infekt": 6524,
      "##öser": 6525,
      "##alismus": 6526,
      "##ierungs": 6527,
      "##euert": 6528,
      "ausger": 6529,
      "rezept": 6530,
      "wovon": 6531,
      "##ivers": 6532,
      "gehei": 6533,
      "darstellt": 6534,
      "lebenden": 6535,
      "abh": 6536,
      "##uchten": 6537,
      "hinder": 6538,
      "grippe": 6539,
      "zusammenarbeiten": 6540,
      "regionen": 6541,
      "betrieben": 6542,
      "insgesamt": 6543,
      "rock": 6544,
      "strand": 6545,
      "bekannte": 6546,
      "offenen": 6547,
      "##ordin": 6548,
      "noten": 6549,
      "konzentriert": 6550,
      "hörten": 6551,
      "langsamer": 6552,
      "##zwungen": 6553,
      "wachstums": 6554,
      "wechseln": 6555,
      "vorstellungskraft": 6556,
      "horiz": 6557,
      "märkte": 6558,
      "bomben": 6559,
      "einschrän": 6560,
      "##lösung": 6561,
      "wikip": 6562,
      "27": 6563,
      "nannten": 6564,
      "##hern": 6565,
      "##ift": 6566,
      "##beln": 6567,
      "##part": 6568,
      "##yr": 6569,
      "##ash": 6570,
      "##anche": 6571,
      "wirken": 6572,
      "##acher": 6573,
      "beachten": 6574,
      "bezüglich": 6575,
      "schalt": 6576,
      "aufnahmen": 6577,
      "##ismen": 6578,
      "weis": 6579,
      "spenden": 6580,
      "##zenz": 6581,
      "ära": 6582,
      "handys": 6583,
      "quellen": 6584,
      "träumen": 6585,
      "box": 6586,
      "boston": 6587,
      "2007": 6588,
      "atlant": 6589,
      "paris": 6590,
      "betreiben": 6591,
      "programmieren": 6592,
      "schweden": 6593,
      "sonnenlicht": 6594,
      "traurig": 6595,
      "ereignisse": 6596,
      "faktor": 6597,
      "geräusche": 6598,
      "##leistungen": 6599,
      "entfernung": 6600,
      "klassenzimmer": 6601,
      "debatte": 6602,
      "zehntau": 6603,
      "futter": 6604,
      "iphone": 6605,
      "lad": 6606,
      "nir": 6607,
      "wil": 6608,
      "##rien": 6609,
      "##funkt": 6610,
      "##preis": 6611,
      "##inhalb": 6612,
      "##onien": 6613,
      "##schriften": 6614,
      "##urz": 6615,
      "ausgesetzt": 6616,
      "fürs": 6617,
      "##ilen": 6618,
      "nachged": 6619,
      "abfall": 6620,
      "enthalten": 6621,
      "##ücke": 6622,
      "zusammenzu": 6623,
      "tatsäch": 6624,
      "schnee": 6625,
      "kredit": 6626,
      "erneut": 6627,
      "musiker": 6628,
      "metall": 6629,
      "ruhe": 6630,
      "fehlt": 6631,
      "liber": 6632,
      "folgenden": 6633,
      "##leib": 6634,
      "golden": 6635,
      "erkannt": 6636,
      "##tausende": 6637,
      "veröffentlichen": 6638,
      "jährigen": 6639,
      "marketing": 6640,
      "##behör": 6641,
      "detail": 6642,
      "versteckt": 6643,
      "fremden": 6644,
      "beteiligt": 6645,
      "origin": 6646,
      "geschenk": 6647,
      "##förm": 6648,
      "antibiot": 6649,
      "dör": 6650,
      "hängen": 6651,
      "pin": 6652,
      "##nach": 6653,
      "##ider": 6654,
      "##kür": 6655,
      "##teste": 6656,
      "source": 6657,
      "voneinander": 6658,
      "##andt": 6659,
      "##rüstung": 6660,
      "hinauf": 6661,
      "##indert": 6662,
      "schlacht": 6663,
      "frö": 6664,
      "spielzeug": 6665,
      "dire": 6666,
      "angem": 6667,
      "##ältigen": 6668,
      "##soft": 6669,
      "drittens": 6670,
      "basierend": 6671,
      "##kehrt": 6672,
      "sonnensystem": 6673,
      "streben": 6674,
      "umfassen": 6675,
      "##leistung": 6676,
      "doppelt": 6677,
      "frankreich": 6678,
      "begegnen": 6679,
      "fokus": 6680,
      "abgesehen": 6681,
      "ernährung": 6682,
      "cyber": 6683,
      "##gesellschaft": 6684,
      "wahnsinn": 6685,
      "wikipedia": 6686,
      "nachgedacht": 6687,
      "don": 6688,
      "eu": 6689,
      "heilen": 6690,
      "simp": 6691,
      "##neiden": 6692,
      "##erte": 6693,
      "wirkt": 6694,
      "erb": 6695,
      "verfahren": 6696,
      "schicht": 6697,
      "proto": 6698,
      "##mittag": 6699,
      "letzter": 6700,
      "##älter": 6701,
      "university": 6702,
      "hinterlassen": 6703,
      "1000": 6704,
      "##linien": 6705,
      "suchte": 6706,
      "teams": 6707,
      "vergangenen": 6708,
      "hinzufügen": 6709,
      "##krankheiten": 6710,
      "ethn": 6711,
      "thom": 6712,
      "verbreitung": 6713,
      "##athie": 6714,
      "gekauft": 6715,
      "jüng": 6716,
      "fokuss": 6717,
      "spüren": 6718,
      "diagnost": 6719,
      "bewirken": 6720,
      "chaos": 6721,
      "unwahr": 6722,
      "##ollywood": 6723,
      "dü": 6724,
      "gps": 6725,
      "talent": 6726,
      "##su": 6727,
      "##muster": 6728,
      "inzwischen": 6729,
      "derselben": 6730,
      "##org": 6731,
      "anführer": 6732,
      "##senden": 6733,
      "unterwegs": 6734,
      "lebendig": 6735,
      "vielmehr": 6736,
      "##werken": 6737,
      "##gebiet": 6738,
      "pho": 6739,
      "irgendeine": 6740,
      "##geschwindigkeit": 6741,
      "krieges": 6742,
      "verdient": 6743,
      "half": 6744,
      "heben": 6745,
      "deiner": 6746,
      "persönlichkeit": 6747,
      "bevölkerungs": 6748,
      "##ueller": 6749,
      "reduziert": 6750,
      "explos": 6751,
      "arabischen": 6752,
      "reagiert": 6753,
      "grundlegend": 6754,
      "av": 6755,
      "cm": 6756,
      "dial": 6757,
      "dienen": 6758,
      "lam": 6759,
      "misst": 6760,
      "wem": 6761,
      "##azin": 6762,
      "##dienst": 6763,
      "##oben": 6764,
      "##king": 6765,
      "##kultur": 6766,
      "##kette": 6767,
      "##onent": 6768,
      "unvor": 6769,
      "beenden": 6770,
      "scham": 6771,
      "angen": 6772,
      "angesch": 6773,
      "gesamm": 6774,
      "##ience": 6775,
      "kleidung": 6776,
      "geschw": 6777,
      "grosse": 6778,
      "zeitraum": 6779,
      "liefer": 6780,
      "glaubten": 6781,
      "teilnehmer": 6782,
      "mamm": 6783,
      "planen": 6784,
      "kindes": 6785,
      "##hof": 6786,
      "ungeh": 6787,
      "schwierige": 6788,
      "##kontro": 6789,
      "beeindruck": 6790,
      "deinem": 6791,
      "weltweiten": 6792,
      "mikroskop": 6793,
      "gesichts": 6794,
      "anschaut": 6795,
      "abente": 6796,
      "proteine": 6797,
      "erhöht": 6798,
      "getrennt": 6799,
      "##oberfläche": 6800,
      "depression": 6801,
      "negativ": 6802,
      "muslim": 6803,
      "##freund": 6804,
      "potenzial": 6805,
      "letztlich": 6806,
      "nar": 6807,
      "ras": 6808,
      "##handel": 6809,
      "##rel": 6810,
      "##ias": 6811,
      "##ippen": 6812,
      "##kat": 6813,
      "##fassung": 6814,
      "##schwe": 6815,
      "ergeben": 6816,
      "verur": 6817,
      "versamm": 6818,
      "gebl": 6819,
      "schach": 6820,
      "aufgeregt": 6821,
      "##bekommen": 6822,
      "level": 6823,
      "womit": 6824,
      "##spiegel": 6825,
      "mehreren": 6826,
      "##weich": 6827,
      "##üssen": 6828,
      "gelang": 6829,
      "flor": 6830,
      "fläche": 6831,
      "versorgen": 6832,
      "äng": 6833,
      "patent": 6834,
      "##stero": 6835,
      "max": 6836,
      "nähr": 6837,
      "gesto": 6838,
      "2005": 6839,
      "schwere": 6840,
      "niemanden": 6841,
      "presse": 6842,
      "##ografie": 6843,
      "analyse": 6844,
      "kontrolliert": 6845,
      "street": 6846,
      "verursachen": 6847,
      "fantastische": 6848,
      "instrumente": 6849,
      "zunehmend": 6850,
      "bekämpfen": 6851,
      "verblüffen": 6852,
      "erdbeben": 6853,
      "aspekte": 6854,
      "anscheinend": 6855,
      "akte": 6856,
      "dichte": 6857,
      "ret": 6858,
      "##lager": 6859,
      "##da": 6860,
      "##ziel": 6861,
      "##mot": 6862,
      "##fischen": 6863,
      "##asien": 6864,
      "##unruh": 6865,
      "##orient": 6866,
      "##elang": 6867,
      "beunruh": 6868,
      "stick": 6869,
      "##ikations": 6870,
      "##spers": 6871,
      "andererseits": 6872,
      "alltä": 6873,
      "##eilung": 6874,
      "##halts": 6875,
      "flächen": 6876,
      "##artig": 6877,
      "wiederholen": 6878,
      "##vermögen": 6879,
      "einzus": 6880,
      "verliert": 6881,
      "wichtiges": 6882,
      "regul": 6883,
      "kurve": 6884,
      "irgendwel": 6885,
      "leuchten": 6886,
      "partei": 6887,
      "elektrische": 6888,
      "schauten": 6889,
      "dunklen": 6890,
      "250": 6891,
      "krankenh": 6892,
      "zerstörung": 6893,
      "hühn": 6894,
      "inspirieren": 6895,
      "älteren": 6896,
      "prior": 6897,
      "draht": 6898,
      "chirurg": 6899,
      "algorithmen": 6900,
      "konsequenzen": 6901,
      "flagge": 6902,
      "neurowissenschaft": 6903,
      "gemälde": 6904,
      "32": 6905,
      "bg": 6906,
      "gal": 6907,
      "hieß": 6908,
      "##cin": 6909,
      "##uar": 6910,
      "##eigt": 6911,
      "eingeladen": 6912,
      "##ünder": 6913,
      "vorhin": 6914,
      "vorsichtig": 6915,
      "impro": 6916,
      "koordin": 6917,
      "geschma": 6918,
      "begreifen": 6919,
      "##fliegen": 6920,
      "erfassen": 6921,
      "indust": 6922,
      "betrieb": 6923,
      "inseln": 6924,
      "bedeutete": 6925,
      "angriff": 6926,
      "besonderen": 6927,
      "ruf": 6928,
      "ähnliches": 6929,
      "island": 6930,
      "mittels": 6931,
      "##küste": 6932,
      "ärm": 6933,
      "nebenbei": 6934,
      "sichtweise": 6935,
      "##züge": 6936,
      "regenw": 6937,
      "flügel": 6938,
      "höchst": 6939,
      "##winkel": 6940,
      "ingenieure": 6941,
      "bemerkenswert": 6942,
      "ägypten": 6943,
      "lebenserwart": 6944,
      "improv": 6945,
      "\"]": 6946,
      "astero": 6947,
      "bä": 6948,
      "fau": 6949,
      "imm": 6950,
      "knapp": 6951,
      "lar": 6952,
      "##bru": 6953,
      "##schicht": 6954,
      "verlauf": 6955,
      "gefr": 6956,
      "anpassen": 6957,
      "##leb": 6958,
      "##obel": 6959,
      "gerettet": 6960,
      "schlussen": 6961,
      "##sterblichkeit": 6962,
      "lande": 6963,
      "phant": 6964,
      "decke": 6965,
      "erwär": 6966,
      "biom": 6967,
      "angeht": 6968,
      "wundervoll": 6969,
      "wunderbaren": 6970,
      "pollen": 6971,
      "kriege": 6972,
      "kore": 6973,
      "general": 6974,
      "anstieg": 6975,
      "oberen": 6976,
      "gebäuden": 6977,
      "physiker": 6978,
      "juni": 6979,
      "investiert": 6980,
      "entdeckungen": 6981,
      "inspiration": 6982,
      "höhere": 6983,
      "scheitern": 6984,
      "intensiv": 6985,
      "erwartungen": 6986,
      "schlussendlich": 6987,
      "700": 6988,
      "800": 6989,
      "bang": 6990,
      "ghan": 6991,
      "late": 6992,
      "##car": 6993,
      "##ses": 6994,
      "##bit": 6995,
      "##bringt": 6996,
      "##ku": 6997,
      "##fone": 6998,
      "bezeichnet": 6999,
      "reaktionen": 7000,
      "legt": 7001,
      "machst": 7002,
      "blü": 7003,
      "orient": 7004,
      "eigentliche": 7005,
      "dreidimension": 7006,
      "##haf": 7007,
      "marken": 7008,
      "robert": 7009,
      "bip": 7010,
      "richtungen": 7011,
      "subst": 7012,
      "schönes": 7013,
      "##iox": 7014,
      "dimension": 7015,
      "schulter": 7016,
      "kühl": 7017,
      "psychologie": 7018,
      "##sproblem": 7019,
      "missb": 7020,
      "science": 7021,
      "verrückte": 7022,
      "drucker": 7023,
      "dauern": 7024,
      "genetische": 7025,
      "##bilder": 7026,
      "##herapie": 7027,
      "humor": 7028,
      "faktoren": 7029,
      "sms": 7030,
      "eisen": 7031,
      "umzugehen": 7032,
      "##schläge": 7033,
      "feiern": 7034,
      "theoret": 7035,
      "kreuz": 7036,
      "spirit": 7037,
      "geschäfte": 7038,
      "horizont": 7039,
      "latein": 7040,
      "dh": 7041,
      "dist": 7042,
      "falten": 7043,
      "niveau": 7044,
      "sw": 7045,
      "vag": 7046,
      "##aa": 7047,
      "##zum": 7048,
      "##ius": 7049,
      "##iellen": 7050,
      "##stür": 7051,
      "eing": 7052,
      "warte": 7053,
      "wenden": 7054,
      "kommer": 7055,
      "##ots": 7056,
      "grossen": 7057,
      "selekt": 7058,
      "gelassen": 7059,
      "##werten": 7060,
      "##artigen": 7061,
      "wiederhol": 7062,
      "pazi": 7063,
      "##aufnahme": 7064,
      "wahrnehmen": 7065,
      "forder": 7066,
      "nahen": 7067,
      "autob": 7068,
      "leiter": 7069,
      "sprung": 7070,
      "reihen": 7071,
      "2009": 7072,
      "chinesen": 7073,
      "beleu": 7074,
      "belast": 7075,
      "fahrer": 7076,
      "zentrale": 7077,
      "harte": 7078,
      "eingeführt": 7079,
      "terroristen": 7080,
      "wünschte": 7081,
      "besuchte": 7082,
      "mobiltele": 7083,
      "grundlegenden": 7084,
      "olymp": 7085,
      "vorbereitet": 7086,
      "überraschung": 7087,
      "65": 7088,
      "brechen": 7089,
      "cle": 7090,
      "lü": 7091,
      "mig": 7092,
      "nimm": 7093,
      "rönt": 7094,
      "##umente": 7095,
      "##za": 7096,
      "##iat": 7097,
      "##viert": 7098,
      "##vater": 7099,
      "##xis": 7100,
      "##stö": 7101,
      "##stät": 7102,
      "##standen": 7103,
      "zurecht": 7104,
      "verkl": 7105,
      "gezogen": 7106,
      "mitnehmen": 7107,
      "##ike": 7108,
      "recyc": 7109,
      "proben": 7110,
      "##ruf": 7111,
      "herstellung": 7112,
      "##wellen": 7113,
      "berge": 7114,
      "berichte": 7115,
      "neutr": 7116,
      "eigenschaft": 7117,
      "gegenden": 7118,
      "autom": 7119,
      "##ikaner": 7120,
      "systems": 7121,
      "starken": 7122,
      "schuhe": 7123,
      "##zeichnungen": 7124,
      "vertei": 7125,
      "bevorzu": 7126,
      "hoffnungs": 7127,
      "spezielle": 7128,
      "yorker": 7129,
      "visuelle": 7130,
      "definiert": 7131,
      "##züg": 7132,
      "protein": 7133,
      "higgs": 7134,
      "berühmt": 7135,
      "lächer": 7136,
      "theorien": 7137,
      "##rimine": 7138,
      "plattform": 7139,
      "gemüse": 7140,
      "thomas": 7141,
      "can": 7142,
      "ritu": 7143,
      "ts": 7144,
      "tin": 7145,
      "wahlen": 7146,
      "ye": 7147,
      "##nügen": 7148,
      "##ory": 7149,
      "schok": 7150,
      "anhalten": 7151,
      "dazwischen": 7152,
      "ausgeben": 7153,
      "vorgehen": 7154,
      "späten": 7155,
      "beides": 7156,
      "##iene": 7157,
      "##reift": 7158,
      "keines": 7159,
      "saal": 7160,
      "##ota": 7161,
      "enttäu": 7162,
      "weltkrieg": 7163,
      "##uche": 7164,
      "beseit": 7165,
      "schlug": 7166,
      "problems": 7167,
      "##älte": 7168,
      "##prozess": 7169,
      "beton": 7170,
      "reserv": 7171,
      "##nehm": 7172,
      "##stücke": 7173,
      "##bewusst": 7174,
      "berechnen": 7175,
      "training": 7176,
      "nachbarschaft": 7177,
      "schlimmste": 7178,
      "denkweise": 7179,
      "brustkrebs": 7180,
      "bedrohung": 7181,
      "außergewöhnlich": 7182,
      "kapitalismus": 7183,
      "erfüllen": 7184,
      "dunkelheit": 7185,
      "projekten": 7186,
      "offiz": 7187,
      "ernähren": 7188,
      "weisheit": 7189,
      "antibiotika": 7190,
      "bord": 7191,
      "##com": 7192,
      "##hst": 7193,
      "##ration": 7194,
      "##gänger": 7195,
      "##tin": 7196,
      "##back": 7197,
      "##erk": 7198,
      "##achung": 7199,
      "beherr": 7200,
      "denselben": 7201,
      "schild": 7202,
      "angelegen": 7203,
      "dame": 7204,
      "##betes": 7205,
      "##stete": 7206,
      "weisen": 7207,
      "##hlend": 7208,
      "recher": 7209,
      "wozu": 7210,
      "blätter": 7211,
      "obama": 7212,
      "sech": 7213,
      "indischen": 7214,
      "zweit": 7215,
      "schwach": 7216,
      "gleichgewicht": 7217,
      "technischen": 7218,
      "brun": 7219,
      "studiert": 7220,
      "linke": 7221,
      "tauchen": 7222,
      "##mittelt": 7223,
      "sinnvoll": 7224,
      "interessanten": 7225,
      "##systeme": 7226,
      "katze": 7227,
      "zähne": 7228,
      "feed": 7229,
      "schmerzen": 7230,
      "weibchen": 7231,
      "jünger": 7232,
      "kaufte": 7233,
      "fettleib": 7234,
      "##stuhl": 7235,
      "bibliothek": 7236,
      "lebenserwartung": 7237,
      "mad": 7238,
      "neigen": 7239,
      "ug": 7240,
      "zig": 7241,
      "##rang": 7242,
      "##wesen": 7243,
      "##fand": 7244,
      "##ähn": 7245,
      "##auten": 7246,
      "verschie": 7247,
      "gezwungen": 7248,
      "anzusehen": 7249,
      "auftreten": 7250,
      "mitglieder": 7251,
      "spinnen": 7252,
      "##ams": 7253,
      "##umb": 7254,
      "leber": 7255,
      "##rug": 7256,
      "##zuführen": 7257,
      "abschl": 7258,
      "liebte": 7259,
      "##izient": 7260,
      "##fluss": 7261,
      "griff": 7262,
      "zurückkehren": 7263,
      "dankbar": 7264,
      "funktionen": 7265,
      "medium": 7266,
      "wasserstoff": 7267,
      "bibel": 7268,
      "systemen": 7269,
      "hoher": 7270,
      "glücklicher": 7271,
      "ursprung": 7272,
      "gesundheitssystem": 7273,
      "grav": 7274,
      "schauspieler": 7275,
      "berühren": 7276,
      "chemische": 7277,
      "änderungen": 7278,
      "kreativen": 7279,
      "nutzer": 7280,
      "myth": 7281,
      "traur": 7282,
      "wütend": 7283,
      "exponent": 7284,
      "seltsame": 7285,
      "interessanterweise": 7286,
      "klavier": 7287,
      "budd": 7288,
      "sogenannten": 7289,
      "stiftung": 7290,
      "ländlichen": 7291,
      "rechner": 7292,
      "diabetes": 7293,
      "ghana": 7294,
      "glet": 7295,
      "kandid": 7296,
      "ther": 7297,
      "vierte": 7298,
      "##fang": 7299,
      "##viele": 7300,
      "##strä": 7301,
      "##ark": 7302,
      "##emin": 7303,
      "##atisch": 7304,
      "##elen": 7305,
      "beu": 7306,
      "##leicht": 7307,
      "enkel": 7308,
      "vorwärts": 7309,
      "prost": 7310,
      "beigebracht": 7311,
      "leer": 7312,
      "##zukommen": 7313,
      "konz": 7314,
      "weltbevölkerung": 7315,
      "besucht": 7316,
      "hinblick": 7317,
      "##fügt": 7318,
      "gemessen": 7319,
      "##äufe": 7320,
      "front": 7321,
      "##ops": 7322,
      "verwendung": 7323,
      "gefol": 7324,
      "wissenschaftlern": 7325,
      "vergnügen": 7326,
      "kreative": 7327,
      "kulturelle": 7328,
      "erklärte": 7329,
      "##zusp": 7330,
      "strö": 7331,
      "empfinden": 7332,
      "diszipl": 7333,
      "privile": 7334,
      "zählt": 7335,
      "erforscht": 7336,
      "##mark": 7337,
      "kugel": 7338,
      "vorhers": 7339,
      "serie": 7340,
      "gespräche": 7341,
      "weiterentwick": 7342,
      "##produktion": 7343,
      "privatsphäre": 7344,
      "spektrum": 7345,
      "budget": 7346,
      "chef": 7347,
      "anruf": 7348,
      "reflekt": 7349,
      "januar": 7350,
      "ausgewä": 7351,
      "symptome": 7352,
      "röntgen": 7353,
      "26": 7354,
      "act": 7355,
      "cart": 7356,
      "gei": 7357,
      "gramm": 7358,
      "net": 7359,
      "sha": 7360,
      "##dach": 7361,
      "##iop": 7362,
      "##messer": 7363,
      "##kap": 7364,
      "##ßern": 7365,
      "##0er": 7366,
      "##iness": 7367,
      "einrichtungen": 7368,
      "##schten": 7369,
      "##ats": 7370,
      "##gefä": 7371,
      "##gezogen": 7372,
      "geom": 7373,
      "##derm": 7374,
      "hacker": 7375,
      "stap": 7376,
      "##euern": 7377,
      "##ratet": 7378,
      "ausmachen": 7379,
      "umständen": 7380,
      "gesunden": 7381,
      "klick": 7382,
      "##design": 7383,
      "gegenwärt": 7384,
      "beschreibt": 7385,
      "polio": 7386,
      "##ischerweise": 7387,
      "karik": 7388,
      "##wirken": 7389,
      "präz": 7390,
      "designs": 7391,
      "knie": 7392,
      "nationale": 7393,
      "nationalen": 7394,
      "emissionen": 7395,
      "##sprogramm": 7396,
      "analog": 7397,
      "ältere": 7398,
      "verfolgt": 7399,
      "genetischen": 7400,
      "biologischen": 7401,
      "wünschen": 7402,
      "wünsche": 7403,
      "sensoren": 7404,
      "chirur": 7405,
      "mosk": 7406,
      "identifizieren": 7407,
      "konfrontiert": 7408,
      "universe": 7409,
      "36": 7410,
      "cir": 7411,
      "hon": 7412,
      "hitze": 7413,
      "häss": 7414,
      "jens": 7415,
      "leh": 7416,
      "last": 7417,
      "nobel": 7418,
      "##dringen": 7419,
      "##ta": 7420,
      "##brech": 7421,
      "##station": 7422,
      "##eihen": 7423,
      "##gekommen": 7424,
      "verpf": 7425,
      "haie": 7426,
      "##ish": 7427,
      "kongo": 7428,
      "##ogramm": 7429,
      "neuigkeiten": 7430,
      "gewann": 7431,
      "gelb": 7432,
      "blo": 7433,
      "malen": 7434,
      "exakt": 7435,
      "erfr": 7436,
      "erfinder": 7437,
      "öfter": 7438,
      "heiraten": 7439,
      "verschiedener": 7440,
      "universitäten": 7441,
      "atomen": 7442,
      "frühe": 7443,
      "instin": 7444,
      "##ffekte": 7445,
      "oberflächen": 7446,
      "physische": 7447,
      "jenen": 7448,
      "zerstör": 7449,
      "##fahrer": 7450,
      "nervös": 7451,
      "batterie": 7452,
      "afrikaner": 7453,
      "winzig": 7454,
      "szene": 7455,
      "katastrophe": 7456,
      "analysieren": 7457,
      "##stimmung": 7458,
      "wälder": 7459,
      "glüh": 7460,
      "jenseits": 7461,
      "bier": 7462,
      "fer": 7463,
      "hir": 7464,
      "lese": 7465,
      "van": 7466,
      "##ählen": 7467,
      "##unge": 7468,
      "angehen": 7469,
      "haiti": 7470,
      "stil": 7471,
      "umso": 7472,
      "umwand": 7473,
      "könne": 7474,
      "einfachheit": 7475,
      "##ärm": 7476,
      "geruch": 7477,
      "gebrau": 7478,
      "##chnet": 7479,
      "jack": 7480,
      "schwanger": 7481,
      "zurückgehen": 7482,
      "techniken": 7483,
      "autismus": 7484,
      "mont": 7485,
      "mails": 7486,
      "gestartet": 7487,
      "##geschlagen": 7488,
      "parall": 7489,
      "unternehmens": 7490,
      "##alisierte": 7491,
      "ähnlichen": 7492,
      "##gemacht": 7493,
      "schaue": 7494,
      "investitionen": 7495,
      "##ianer": 7496,
      "visu": 7497,
      "risk": 7498,
      "120": 7499,
      "billig": 7500,
      "beruh": 7501,
      "fantasie": 7502,
      "staats": 7503,
      "angesichts": 7504,
      "kuh": 7505,
      "vernünft": 7506,
      "##osex": 7507,
      "stille": 7508,
      "klinik": 7509,
      "höchsten": 7510,
      "brand": 7511,
      "weibliche": 7512,
      "wunderschöne": 7513,
      "kollab": 7514,
      "belohnung": 7515,
      "staub": 7516,
      "prototypen": 7517,
      "ruhig": 7518,
      "komponenten": 7519,
      "wirtschaftswachstum": 7520,
      "skelett": 7521,
      "microsoft": 7522,
      "nirgend": 7523,
      "beeindruckend": 7524,
      "schokol": 7525,
      "%.": 7526,
      "28": 7527,
      "hassen": 7528,
      "ky": 7529,
      "mak": 7530,
      "os": 7531,
      "##aster": 7532,
      "##uck": 7533,
      "##iffe": 7534,
      "##kol": 7535,
      "##kord": 7536,
      "##ya": 7537,
      "##inter": 7538,
      "##eider": 7539,
      "##schiff": 7540,
      "diesmal": 7541,
      "##ight": 7542,
      "mitglied": 7543,
      "ausnahme": 7544,
      "##agte": 7545,
      "abgel": 7546,
      "##fühlen": 7547,
      "metern": 7548,
      "gebur": 7549,
      "marke": 7550,
      "höhlen": 7551,
      "bekann": 7552,
      "küche": 7553,
      "organisiert": 7554,
      "pflanze": 7555,
      "lernten": 7556,
      "medikamenten": 7557,
      "regelmäßig": 7558,
      "türk": 7559,
      "schlechtes": 7560,
      "myster": 7561,
      "winzigen": 7562,
      "chinesischen": 7563,
      "strategien": 7564,
      "verstecken": 7565,
      "kreislauf": 7566,
      "ökonomen": 7567,
      "multi": 7568,
      "effizienz": 7569,
      "figur": 7570,
      "langweilig": 7571,
      "big": 7572,
      "hard": 7573,
      "jur": 7574,
      "kg": 7575,
      "sus": 7576,
      "##hlich": 7577,
      "##bein": 7578,
      "##iebs": 7579,
      "##eiben": 7580,
      "geeig": 7581,
      "alko": 7582,
      "##igungen": 7583,
      "stich": 7584,
      "stieg": 7585,
      "manh": 7586,
      "übersetzen": 7587,
      "gesetzt": 7588,
      "vorgang": 7589,
      "##ump": 7590,
      "##rauen": 7591,
      "saßen": 7592,
      "abgesch": 7593,
      "vielfält": 7594,
      "muskel": 7595,
      "muskeln": 7596,
      "frag": 7597,
      "beglei": 7598,
      "##gebiete": 7599,
      "wahrhaft": 7600,
      "benutze": 7601,
      "willkommen": 7602,
      "##trags": 7603,
      "behör": 7604,
      "studio": 7605,
      "wundervolle": 7606,
      "lehre": 7607,
      "musikal": 7608,
      "robot": 7609,
      "kaputt": 7610,
      "fahrzeug": 7611,
      "englischen": 7612,
      "schwestern": 7613,
      "mathematiker": 7614,
      "stärken": 7615,
      "höheren": 7616,
      "erwähnen": 7617,
      "peter": 7618,
      "ignorieren": 7619,
      "entschlossen": 7620,
      "hindurch": 7621,
      "prozesse": 7622,
      "diplomat": 7623,
      "stirbt": 7624,
      "ungeheuer": 7625,
      "ärmsten": 7626,
      "gän": 7627,
      "mob": 7628,
      "##gin": 7629,
      "##zahlen": 7630,
      "##kw": 7631,
      "##kä": 7632,
      "eingehen": 7633,
      "##anlage": 7634,
      "##ora": 7635,
      "befür": 7636,
      "##üren": 7637,
      "##andelt": 7638,
      "vorschlag": 7639,
      "gipfel": 7640,
      "lebende": 7641,
      "##gespr": 7642,
      "bildet": 7643,
      "ör": 7644,
      "##hai": 7645,
      "gemeinnütz": 7646,
      "##ict": 7647,
      "attra": 7648,
      "filmen": 7649,
      "diff": 7650,
      "wohlbe": 7651,
      "magazin": 7652,
      "politisch": 7653,
      "base": 7654,
      "riesiges": 7655,
      "knopf": 7656,
      "elektrischen": 7657,
      "jenem": 7658,
      "fair": 7659,
      "##ianischen": 7660,
      "privaten": 7661,
      "tränen": 7662,
      "durchschnittlich": 7663,
      "positiven": 7664,
      "aktuelle": 7665,
      "konsumenten": 7666,
      "bush": 7667,
      "echtes": 7668,
      "##pflanz": 7669,
      "fliegt": 7670,
      "präsidenten": 7671,
      "irgendeinem": 7672,
      "##jährige": 7673,
      "tragöd": 7674,
      "joe": 7675,
      "explod": 7676,
      "drehte": 7677,
      "infiziert": 7678,
      "reparieren": 7679,
      "konflikte": 7680,
      "stanford": 7681,
      "treibhaus": 7682,
      "angemessen": 7683,
      "##ioxid": 7684,
      "alkohol": 7685,
      "95": 7686,
      "bob": 7687,
      "eb": 7688,
      "event": 7689,
      "ohr": 7690,
      "pand": 7691,
      "tja": 7692,
      "valle": 7693,
      "wut": 7694,
      "##ammt": 7695,
      "##dro": 7696,
      "##gut": 7697,
      "##gangen": 7698,
      "##krä": 7699,
      "##wor": 7700,
      "##enk": 7701,
      "inklus": 7702,
      "geteilt": 7703,
      "##rufen": 7704,
      "##iens": 7705,
      "##örter": 7706,
      "##ächer": 7707,
      "füße": 7708,
      "flasche": 7709,
      "##geräte": 7710,
      "##gerufen": 7711,
      "gebieten": 7712,
      "brach": 7713,
      "organe": 7714,
      "##hoben": 7715,
      "schwerer": 7716,
      "##alisierten": 7717,
      "life": 7718,
      "ehre": 7719,
      "apple": 7720,
      "moralischen": 7721,
      "traditionelle": 7722,
      "fliege": 7723,
      "paläst": 7724,
      "bedürfnis": 7725,
      "wärme": 7726,
      "diagnose": 7727,
      "neugierig": 7728,
      "philosophie": 7729,
      "dutzend": 7730,
      "vergrößer": 7731,
      "ursache": 7732,
      "pinguine": 7733,
      "transparenz": 7734,
      "weihnacht": 7735,
      "abenteuer": 7736,
      "kommerzie": 7737,
      "ehren": 7738,
      "jon": 7739,
      "pre": 7740,
      "tasche": 7741,
      "##dungen": 7742,
      "##brochen": 7743,
      "##erei": 7744,
      "##bere": 7745,
      "verarbeiten": 7746,
      "vermögen": 7747,
      "##reicht": 7748,
      "##beg": 7749,
      "##bellen": 7750,
      "übert": 7751,
      "kond": 7752,
      "nachfrage": 7753,
      "##ienten": 7754,
      "##kopf": 7755,
      "kleinere": 7756,
      "195": 7757,
      "organismus": 7758,
      "##iums": 7759,
      "betrü": 7760,
      "invol": 7761,
      "##ibel": 7762,
      "party": 7763,
      "zentral": 7764,
      "änderte": 7765,
      "zugleich": 7766,
      "##letzt": 7767,
      "öffnet": 7768,
      "nahezu": 7769,
      "daumen": 7770,
      "förder": 7771,
      "enthü": 7772,
      "mächtig": 7773,
      "emotionale": 7774,
      "unsichtbar": 7775,
      "therapie": 7776,
      "spannend": 7777,
      "privileg": 7778,
      "33": 7779,
      "brei": 7780,
      "camp": 7781,
      "drück": 7782,
      "ego": 7783,
      "hob": 7784,
      "preise": 7785,
      "sektor": 7786,
      "tv": 7787,
      "##ham": 7788,
      "##ammen": 7789,
      "##gungen": 7790,
      "##gänge": 7791,
      "##tn": 7792,
      "##ähm": 7793,
      "##une": 7794,
      "verscha": 7795,
      "geöff": 7796,
      "##decken": 7797,
      "ausst": 7798,
      "klingen": 7799,
      "hingehen": 7800,
      "teilnehmen": 7801,
      "zwöl": 7802,
      "gleichung": 7803,
      "##klasse": 7804,
      "handels": 7805,
      "dep": 7806,
      "##aku": 7807,
      "polar": 7808,
      "stammen": 7809,
      "biologen": 7810,
      "offene": 7811,
      "formul": 7812,
      "erfolgs": 7813,
      "anwendungen": 7814,
      "katzen": 7815,
      "entscheidende": 7816,
      "private": 7817,
      "aufrecht": 7818,
      "lokal": 7819,
      "gründete": 7820,
      "thun": 7821,
      "schickte": 7822,
      "abends": 7823,
      "schlimmsten": 7824,
      "freie": 7825,
      "niedrig": 7826,
      "höhepunkt": 7827,
      "motivation": 7828,
      "frucht": 7829,
      "dichter": 7830,
      "assozi": 7831,
      "oxy": 7832,
      "ungleichheit": 7833,
      "austausch": 7834,
      "##gült": 7835,
      "carto": 7836,
      "aqu": 7837,
      "brä": 7838,
      "dru": 7839,
      "dient": 7840,
      "hass": 7841,
      "jh": 7842,
      "ratten": 7843,
      "set": 7844,
      "vul": 7845,
      "##dliche": 7846,
      "##bie": 7847,
      "##körper": 7848,
      "##stü": 7849,
      "##llige": 7850,
      "##äden": 7851,
      "##önen": 7852,
      "gepl": 7853,
      "##etts": 7854,
      "ausgehen": 7855,
      "ausdrücken": 7856,
      "##bell": 7857,
      "werten": 7858,
      "selbe": 7859,
      "versicher": 7860,
      "wiederher": 7861,
      "wiederver": 7862,
      "wiederholt": 7863,
      "##verl": 7864,
      "##aufgaben": 7865,
      "schwein": 7866,
      "bestra": 7867,
      "technische": 7868,
      "verließ": 7869,
      "1950": 7870,
      "trat": 7871,
      "gedr": 7872,
      "glücks": 7873,
      "##mögliche": 7874,
      "mannes": 7875,
      "sozialer": 7876,
      "ebenen": 7877,
      "##istent": 7878,
      "internets": 7879,
      "lux": 7880,
      "##ständige": 7881,
      "büchern": 7882,
      "##jekten": 7883,
      "##drücke": 7884,
      "appl": 7885,
      "maßnahmen": 7886,
      "mechanismus": 7887,
      "gewöhnt": 7888,
      "benutzten": 7889,
      "setzten": 7890,
      "begrenzt": 7891,
      "teleskop": 7892,
      "jeweils": 7893,
      "dialog": 7894,
      "gesammelt": 7895,
      "bösen": 7896,
      "clo": 7897,
      "mis": 7898,
      "rü": 7899,
      "raten": 7900,
      "richten": 7901,
      "sim": 7902,
      "“.": 7903,
      "##aff": 7904,
      "##biert": 7905,
      "##20": 7906,
      "##chtern": 7907,
      "##stel": 7908,
      "##orien": 7909,
      "##achs": 7910,
      "verp": 7911,
      "verteilung": 7912,
      "gete": 7913,
      "##mmel": 7914,
      "wartet": 7915,
      "ausrüstung": 7916,
      "umstände": 7917,
      "nachdenkt": 7918,
      "menschlich": 7919,
      "unterhalt": 7920,
      "konst": 7921,
      "##icket": 7922,
      "##hent": 7923,
      "tee": 7924,
      "hinsichtlich": 7925,
      "fließen": 7926,
      "wahren": 7927,
      "schweine": 7928,
      "sprich": 7929,
      "breit": 7930,
      "mac": 7931,
      "gesunde": 7932,
      "offensicht": 7933,
      "besonderes": 7934,
      "verdr": 7935,
      "harm": 7936,
      "hüb": 7937,
      "rauchen": 7938,
      "enormen": 7939,
      "heutige": 7940,
      "verbesserung": 7941,
      "fließt": 7942,
      "logik": 7943,
      "höchste": 7944,
      "resultate": 7945,
      "beitragen": 7946,
      "komplizierter": 7947,
      "szenar": 7948,
      "eröffnet": 7949,
      "toiletten": 7950,
      "diskutieren": 7951,
      "konkurren": 7952,
      "wurzeln": 7953,
      "arznei": 7954,
      "verpflich": 7955,
      "valley": 7956,
      "greifen": 7957,
      "jer": 7958,
      "pc": 7959,
      "pum": 7960,
      "ske": 7961,
      "ut": 7962,
      "##dauer": 7963,
      "##material": 7964,
      "##feln": 7965,
      "##vis": 7966,
      "##erzä": 7967,
      "##steine": 7968,
      "##eidet": 7969,
      "einheiten": 7970,
      "##äger": 7971,
      "versprechen": 7972,
      "##urop": 7973,
      "befest": 7974,
      "anweis": 7975,
      "haare": 7976,
      "aufeinander": 7977,
      "ausgaben": 7978,
      "vorn": 7979,
      "vorgestellt": 7980,
      "vorträge": 7981,
      "keinem": 7982,
      "stets": 7983,
      "wände": 7984,
      "##endes": 7985,
      "verbrei": 7986,
      "##ektar": 7987,
      "geraten": 7988,
      "mount": 7989,
      "meere": 7990,
      "##ologisch": 7991,
      "verlor": 7992,
      "handlungen": 7993,
      "##aps": 7994,
      "lebensraum": 7995,
      "gedichte": 7996,
      "2004": 7997,
      "festgestellt": 7998,
      "weltweite": 7999
    }
  }
}