{
  "version": "1.0",
  "truncation": null,
  "padding": null,
  "added_tokens": [
    {
      "id": 0,
      "content": "<UNK>",
      "single_word": false,
      "lstrip": false,
      "rstrip": false,
      "normalized": false,
      "special": true
    },
    {
      "id": 1,
      "content": "<BOS>",
      "single_word": false,
      "lstrip": false,
      "rstrip": false,
      "normalized": false,
      "special": true
    },
    {
      "id": 2,
      "content": "<EOS>",
      "single_word": false,
      "lstrip": false,
      "rstrip": false,
      "normalized": false,
      "special": true
    },
    {
      "id": 3,
      "content": "<PAD>",
      "single_word": false,
      "lstrip": false,
      "rstrip": false,
      "normalized": false,
      "special": true
    }
  ],
  "normalizer": {
    "type": "Sequence",
    "normalizers": [
      {
        "type": "NFD"
      },
      {
        "type": "Lowercase"
      }
    ]
  },
  "pre_tokenizer": {
    "type": "Whitespace"
  },
  "post_processor": {
    "type": "TemplateProcessing",
    "single": [
      {
        "SpecialToken": {
          "id": "<BOS>",
          "type_id": 0
        }
      },
      {
        "Sequence": {
          "id": "A",
          "type_id": 0
        }
      },
      {
        "SpecialToken": {
          "id": "<EOS>",
          "type_id": 0
        }
      }
    ],
    "pair": [
      {
        "Sequence": {
          "id": "A",
          "type_id": 0
        }
      },
      {
        "Sequence": {
          "id": "B",
          "type_id": 1
        }
      }
    ],
    "special_tokens": {
      "<BOS>": {
        "id": "<BOS>",
        "ids": [
          1
        ],
        "tokens": [
          "<BOS>"
        ]
      },
      "<EOS>": {
        "id": "<EOS>",
        "ids": [
          2
        ],
        "tokens": [
          "<EOS>"
        ]
      }
    }
  },
  "decoder": {
    "type": "WordPiece",
    "prefix": "##",
    "cleanup": true
  },
  "model": {
    "type": "WordPiece",
    "unk_token": "<UNK>",
    "continuing_subword_prefix": "##",
    "max_input_chars_per_word": 100,
    "vocab": {
      "<UNK>": 0,
      "<BOS>": 1,
      "<EOS>": 2,
      "<PAD>": 3,
      "!": 4,
      "\"": 5,
      "#": 6,
      "$": 7,
      "%": 8,
      "&": 9,
      "'": 10,
      "(": 11,
      ")": 12,
      "*": 13,
      "+": 14,
      ",": 15,
      "-": 16,
      ".": 17,
      "/": 18,
      "0": 19,
      "1": 20,
      "2": 21,
      "3": 22,
      "4": 23,
      "5": 24,
      "6": 25,
      "7": 26,
      "8": 27,
      "9": 28,
      ":": 29,
      ";": 30,
      "=": 31,
      "?": 32,
      "@": 33,
      "[": 34,
      "]": 35,
      "^": 36,
      "_": 37,
      "a": 38,
      "b": 39,
      "c": 40,
      "d": 41,
      "e": 42,
      "f": 43,
      "g": 44,
      "h": 45,
      "i": 46,
      "j": 47,
      "k": 48,
      "l": 49,
      "m": 50,
      "n": 51,
      "o": 52,
      "p": 53,
      "q": 54,
      "r": 55,
      "s": 56,
      "t": 57,
      "u": 58,
      "v": 59,
      "w": 60,
      "x": 61,
      "y": 62,
      "z": 63,
      "": 64,
      "": 65,
      "¡": 66,
      "£": 67,
      "²": 68,
      "º": 69,
      "ø": 70,
      "̀": 71,
      "́": 72,
      "̂": 73,
      "̃": 74,
      "̄": 75,
      "̈": 76,
      "̊": 77,
      "̌": 78,
      "̧": 79,
      "ย": 80,
      "ร": 81,
      "อ": 82,
      "่": 83,
      "–": 84,
      "—": 85,
      "‘": 86,
      "’": 87,
      "“": 88,
      "”": 89,
      "…": 90,
      "€": 91,
      "♪": 92,
      "♫": 93,
      "你": 94,
      "葱": 95,
      "送": 96,
      "##i": 97,
      "##s": 98,
      "##m": 99,
      "##e": 100,
      "##o": 101,
      "##n": 102,
      "##a": 103,
      "##t": 104,
      "##h": 105,
      "##u": 106,
      "##r": 107,
      "##c": 108,
      "##l": 109,
      "##b": 110,
      "##y": 111,
      "##g": 112,
      "##d": 113,
      "##p": 114,
      "##0": 115,
      "##x": 116,
      "##k": 117,
      "##w": 118,
      "##f": 119,
      "##v": 120,
      "##8": 121,
      "##4": 122,
      "##j": 123,
      "##́": 124,
      "##z": 125,
      "##9": 126,
      "##7": 127,
      "##2": 128,
      "##3": 129,
      "##5": 130,
      "##6": 131,
      "##1": 132,
      "##̧": 133,
      "##q": 134,
      "##\"": 135,
      "##?": 136,
      "##ø": 137,
      "##̈": 138,
      "##̀": 139,
      "##]": 140,
      "##.": 141,
      "##,": 142,
      "##:": 143,
      "##_": 144,
      "##&": 145,
      "##̂": 146,
      "##!": 147,
      "##@": 148,
      "##̌": 149,
      "##̄": 150,
      "##;": 151,
      "##”": 152,
      "##-": 153,
      "##̃": 154,
      "##[": 155,
      "##/": 156,
      "##'": 157,
      "##)": 158,
      "##ร": 159,
      "##่": 160,
      "##อ": 161,
      "##ย": 162,
      "##": 163,
      "##$": 164,
      "###": 165,
      "##+": 166,
      "##“": 167,
      "##♫": 168,
      "##—": 169,
      "##̊": 170,
      "##你": 171,
      "##葱": 172,
      "th": 173,
      "the": 174,
      "##er": 175,
      "##in": 176,
      "##at": 177,
      "##nd": 178,
      "##ou": 179,
      "##re": 180,
      "##ing": 181,
      "and": 182,
      "to": 183,
      "##on": 184,
      "##en": 185,
      "##es": 186,
      "##an": 187,
      "of": 188,
      "##or": 189,
      "in": 190,
      "##al": 191,
      "##ed": 192,
      "##is": 193,
      "##it": 194,
      "##ar": 195,
      "that": 196,
      "you": 197,
      "##om": 198,
      "wh": 199,
      "##as": 200,
      "it": 201,
      "we": 202,
      "##ic": 203,
      "##le": 204,
      "##ll": 205,
      "is": 206,
      "be": 207,
      "##ow": 208,
      "##ly": 209,
      "##ut": 210,
      "##ve": 211,
      "##se": 212,
      "##ion": 213,
      "re": 214,
      "##ot": 215,
      "##st": 216,
      "##et": 217,
      "##ent": 218,
      "on": 219,
      "ha": 220,
      "##ct": 221,
      "this": 222,
      "##ld": 223,
      "so": 224,
      "##ay": 225,
      "st": 226,
      "##id": 227,
      "##ig": 228,
      "##ur": 229,
      "##ch": 230,
      "for": 231,
      "##ver": 232,
      "##ce": 233,
      "they": 234,
      "##op": 235,
      "##ke": 236,
      "an": 237,
      "was": 238,
      "do": 239,
      "##ere": 240,
      "##im": 241,
      "##ir": 242,
      "are": 243,
      "li": 244,
      "go": 245,
      "##am": 246,
      "##ro": 247,
      "##ith": 248,
      "##ally": 249,
      "se": 250,
      "what": 251,
      "with": 252,
      "##th": 253,
      "have": 254,
      "ab": 255,
      "he": 256,
      "but": 257,
      "can": 258,
      "as": 259,
      "mo": 260,
      "##ad": 261,
      "--": 262,
      "##ol": 263,
      "##ter": 264,
      "##ation": 265,
      "sh": 266,
      "##out": 267,
      "com": 268,
      "wor": 269,
      "ne": 270,
      "##ht": 271,
      "at": 272,
      "##ra": 273,
      "me": 274,
      "ch": 275,
      "there": 276,
      "##ould": 277,
      "not": 278,
      "about": 279,
      "all": 280,
      "##ill": 281,
      "##ant": 282,
      "fr": 283,
      "##ge": 284,
      "##il": 285,
      "##ul": 286,
      "##ust": 287,
      "som": 288,
      "##oo": 289,
      "##ers": 290,
      "##est": 291,
      "ex": 292,
      "or": 293,
      "my": 294,
      "de": 295,
      "pe": 296,
      "##ight": 297,
      "##ear": 298,
      "one": 299,
      "pro": 300,
      "con": 301,
      "##au": 302,
      "like": 303,
      "##um": 304,
      "##art": 305,
      "peop": 306,
      "people": 307,
      "bec": 308,
      "##ck": 309,
      "ma": 310,
      "##pp": 311,
      "if": 312,
      "##ate": 313,
      "##ure": 314,
      "##ies": 315,
      "from": 316,
      "##ess": 317,
      "##ity": 318,
      "##ive": 319,
      "kn": 320,
      "al": 321,
      "##ble": 322,
      "now": 323,
      "##ist": 324,
      "our": 325,
      "##if": 326,
      "tr": 327,
      "te": 328,
      "##ind": 329,
      "just": 330,
      "us": 331,
      "these": 332,
      "out": 333,
      "##ink": 334,
      "sp": 335,
      "know": 336,
      "##ect": 337,
      "##ery": 338,
      "##all": 339,
      "##ause": 340,
      "##un": 341,
      "##ook": 342,
      "##od": 343,
      "when": 344,
      "thing": 345,
      "##rou": 346,
      "en": 347,
      "because": 348,
      "see": 349,
      "up": 350,
      "who": 351,
      "them": 352,
      "very": 353,
      "##os": 354,
      "think": 355,
      "##us": 356,
      "##and": 357,
      "##her": 358,
      "##ie": 359,
      "pl": 360,
      "##ort": 361,
      "get": 362,
      "by": 363,
      "how": 364,
      "some": 365,
      "##ich": 366,
      "##ain": 367,
      "going": 368,
      "act": 369,
      "##ci": 370,
      "year": 371,
      "##iv": 372,
      "ever": 373,
      "your": 374,
      "int": 375,
      "##og": 376,
      "##el": 377,
      "im": 378,
      "more": 379,
      "tim": 380,
      "##one": 381,
      "had": 382,
      "##ap": 383,
      "sa": 384,
      "look": 385,
      "would": 386,
      "which": 387,
      "here": 388,
      "##em": 389,
      "su": 390,
      "ve": 391,
      "##ame": 392,
      "##ine": 393,
      "##our": 394,
      "their": 395,
      "comp": 396,
      "un": 397,
      "were": 398,
      "really": 399,
      "##gh": 400,
      "want": 401,
      "le": 402,
      "##ast": 403,
      "##ually": 404,
      "##ment": 405,
      "work": 406,
      "than": 407,
      "##ard": 408,
      ".\"": 409,
      "##iz": 410,
      "##ous": 411,
      "then": 412,
      "##ack": 413,
      "##act": 414,
      "world": 415,
      "way": 416,
      "##reat": 417,
      "##are": 418,
      "ta": 419,
      "##ose": 420,
      "every": 421,
      "##hing": 422,
      "##ence": 423,
      "time": 424,
      "no": 425,
      "man": 426,
      "per": 427,
      "has": 428,
      "qu": 429,
      "don": 430,
      "##ab": 431,
      "oth": 432,
      "##ans": 433,
      "ev": 434,
      "##ore": 435,
      "pr": 436,
      "##ace": 437,
      "actually": 438,
      "##ag": 439,
      "exp": 440,
      "will": 441,
      "where": 442,
      "##ide": 443,
      "fe": 444,
      "into": 445,
      "could": 446,
      "ag": 447,
      "##fer": 448,
      "##nt": 449,
      "say": 450,
      "##ong": 451,
      "am": 452,
      "##ions": 453,
      "pre": 454,
      "##ild": 455,
      "co": 456,
      "things": 457,
      "did": 458,
      "years": 459,
      "##itt": 460,
      "other": 461,
      "##age": 462,
      "somet": 463,
      "##ud": 464,
      "well": 465,
      "tw": 466,
      "inter": 467,
      "cl": 468,
      "##alk": 469,
      "any": 470,
      "##00": 471,
      "##nder": 472,
      "af": 473,
      "right": 474,
      "##ss": 475,
      "##ical": 476,
      "new": 477,
      "##ach": 478,
      "make": 479,
      "been": 480,
      "ar": 481,
      "happ": 482,
      "dif": 483,
      "po": 484,
      "she": 485,
      "res": 486,
      "##ip": 487,
      "over": 488,
      "need": 489,
      "mu": 490,
      "part": 491,
      "bu": 492,
      "fir": 493,
      "##so": 494,
      "said": 495,
      "start": 496,
      "##fe": 497,
      "two": 498,
      "something": 499,
      "dis": 500,
      "imp": 501,
      "first": 502,
      "##ue": 503,
      "##ree": 504,
      "those": 505,
      "##ia": 506,
      "lo": 507,
      "##ice": 508,
      "##own": 509,
      "back": 510,
      "##ry": 511,
      "##ory": 512,
      "##ite": 513,
      "##pt": 514,
      "##olog": 515,
      "got": 516,
      "call": 517,
      "much": 518,
      "##orm": 519,
      "##round": 520,
      "##ount": 521,
      "kind": 522,
      "chan": 523,
      "##ire": 524,
      "differ": 525,
      "##ign": 526,
      "##ens": 527,
      "##ass": 528,
      "also": 529,
      "litt": 530,
      "ph": 531,
      "##ater": 532,
      "little": 533,
      "##sel": 534,
      "##ound": 535,
      "##ac": 536,
      "ro": 537,
      "##ib": 538,
      "spe": 539,
      "most": 540,
      "lot": 541,
      "cont": 542,
      "ac": 543,
      "id": 544,
      "des": 545,
      "##cent": 546,
      "talk": 547,
      "##ber": 548,
      "##ult": 549,
      "ad": 550,
      "##ple": 551,
      "bet": 552,
      "##qu": 553,
      "##way": 554,
      "only": 555,
      "even": 556,
      "##ves": 557,
      "life": 558,
      "sy": 559,
      "under": 560,
      "##ving": 561,
      "his": 562,
      "##king": 563,
      "day": 564,
      "##ody": 565,
      "ind": 566,
      "##ff": 567,
      "##vel": 568,
      "##ome": 569,
      "##ru": 570,
      "bl": 571,
      "hum": 572,
      "##able": 573,
      "##ep": 574,
      "##ated": 575,
      "take": 576,
      "many": 577,
      "let": 578,
      "##ations": 579,
      "good": 580,
      "br": 581,
      "##du": 582,
      "##ght": 583,
      "##co": 584,
      "gr": 585,
      "does": 586,
      "her": 587,
      "##ade": 588,
      "different": 589,
      "##ish": 590,
      "##ial": 591,
      "##ick": 592,
      "##rain": 593,
      "##ict": 594,
      "##other": 595,
      "##rough": 596,
      "down": 597,
      "why": 598,
      "real": 599,
      "sc": 600,
      "comm": 601,
      "ide": 602,
      "through": 603,
      "around": 604,
      "##ood": 605,
      "put": 606,
      "may": 607,
      "ll": 608,
      "##ase": 609,
      "##int": 610,
      "##ms": 611,
      "##ents": 612,
      "being": 613,
      "##ph": 614,
      "show": 615,
      "##ell": 616,
      "em": 617,
      "##ark": 618,
      "tell": 619,
      "##urn": 620,
      "fl": 621,
      "use": 622,
      "##cess": 623,
      "##pl": 624,
      "##ible": 625,
      "inc": 626,
      "##form": 627,
      "sm": 628,
      "##ors": 629,
      "same": 630,
      "##day": 631,
      "come": 632,
      "gen": 633,
      "great": 634,
      "thou": 635,
      "too": 636,
      "tech": 637,
      "happen": 638,
      "try": 639,
      "##iver": 640,
      "proble": 641,
      "##ob": 642,
      "##ether": 643,
      "car": 644,
      "##wn": 645,
      "count": 646,
      "three": 647,
      "##ak": 648,
      "##ance": 649,
      "fact": 650,
      "big": 651,
      "##ary": 652,
      "##ject": 653,
      "off": 654,
      "##ys": 655,
      "human": 656,
      "dr": 657,
      "doing": 658,
      "##lect": 659,
      "##stem": 660,
      "##ting": 661,
      "techn": 662,
      "##ful": 663,
      "wr": 664,
      "##ath": 665,
      "##ual": 666,
      "find": 667,
      "##ning": 668,
      "##ang": 669,
      "##xt": 670,
      "##ically": 671,
      "pers": 672,
      "gu": 673,
      "sur": 674,
      "##ric": 675,
      "thank": 676,
      "##ower": 677,
      "##ved": 678,
      "##ces": 679,
      "##ord": 680,
      "##ile": 681,
      "again": 682,
      "app": 683,
      "percent": 684,
      "after": 685,
      "called": 686,
      "system": 687,
      "stud": 688,
      "build": 689,
      "##ology": 690,
      "sim": 691,
      "dec": 692,
      "child": 693,
      "##red": 694,
      "##ied": 695,
      "##igh": 696,
      "fo": 697,
      "##nds": 698,
      "##fore": 699,
      "##thing": 700,
      "##illion": 701,
      "col": 702,
      "##body": 703,
      "bas": 704,
      "ear": 705,
      "##ren": 706,
      "##self": 707,
      "##ert": 708,
      "rem": 709,
      "##ress": 710,
      "inv": 711,
      "long": 712,
      "wom": 713,
      "inst": 714,
      "made": 715,
      "today": 716,
      "bel": 717,
      "##ub": 718,
      "quest": 719,
      "##ons": 720,
      "##ics": 721,
      "ob": 722,
      "##ition": 723,
      "##cial": 724,
      "##ious": 725,
      "should": 726,
      "##ating": 727,
      "lear": 728,
      "own": 729,
      "import": 730,
      "op": 731,
      "##ities": 732,
      "##oss": 733,
      "##ft": 734,
      "##ize": 735,
      "sch": 736,
      "turn": 737,
      "##ian": 738,
      "##we": 739,
      "##te": 740,
      "design": 741,
      "cr": 742,
      "gl": 743,
      "bo": 744,
      "hel": 745,
      "last": 746,
      "##les": 747,
      "##ars": 748,
      "underst": 749,
      "end": 750,
      "##av": 751,
      "cour": 752,
      "mean": 753,
      "play": 754,
      "brain": 755,
      "sci": 756,
      "rel": 757,
      "change": 758,
      "##ates": 759,
      "another": 760,
      "interest": 761,
      "didn": 762,
      "ask": 763,
      "person": 764,
      "creat": 765,
      "feel": 766,
      "important": 767,
      "thought": 768,
      "idea": 769,
      "its": 770,
      "old": 771,
      "##ope": 772,
      "exper": 773,
      "##als": 774,
      "him": 775,
      "started": 776,
      "before": 777,
      "?\"": 778,
      "##ail": 779,
      "##con": 780,
      "trans": 781,
      "cons": 782,
      "ke": 783,
      "exam": 784,
      "give": 785,
      "ins": 786,
      "fu": 787,
      "000": 788,
      "##ty": 789,
      "mon": 790,
      "went": 791,
      "never": 792,
      "##ool": 793,
      "understand": 794,
      "help": 795,
      "sl": 796,
      "might": 797,
      "##ise": 798,
      "##ough": 799,
      "course": 800,
      "##gan": 801,
      "better": 802,
      "imag": 803,
      "bit": 804,
      "point": 805,
      "##ution": 806,
      "power": 807,
      "ter": 808,
      "##be": 809,
      "produ": 810,
      "story": 811,
      "##ility": 812,
      "##atter": 813,
      "##ists": 814,
      "##pe": 815,
      "found": 816,
      "problem": 817,
      "belie": 818,
      "##ular": 819,
      "school": 820,
      "pol": 821,
      "##ily": 822,
      "num": 823,
      "plan": 824,
      "eng": 825,
      "##ction": 826,
      "still": 827,
      "kid": 828,
      "able": 829,
      "##lic": 830,
      "next": 831,
      "cent": 832,
      "few": 833,
      "##kes": 834,
      "sol": 835,
      "tog": 836,
      "mod": 837,
      "art": 838,
      "sort": 839,
      "together": 840,
      "##ix": 841,
      "water": 842,
      "ago": 843,
      "each": 844,
      "tra": 845,
      "high": 846,
      "##erg": 847,
      "fam": 848,
      "ok": 849,
      "19": 850,
      "str": 851,
      "med": 852,
      "place": 853,
      "commun": 854,
      "came": 855,
      "##ather": 856,
      "##oth": 857,
      "four": 858,
      "min": 859,
      "seco": 860,
      "comple": 861,
      "##alth": 862,
      "##ense": 863,
      "ser": 864,
      "##ited": 865,
      "##ward": 866,
      "##velop": 867,
      "technology": 868,
      "##atch": 869,
      "##ween": 870,
      "fin": 871,
      "##mo": 872,
      "hu": 873,
      "##eric": 874,
      "##ave": 875,
      "rec": 876,
      "10": 877,
      "develop": 878,
      "learn": 879,
      "nat": 880,
      "dat": 881,
      "between": 882,
      "##ience": 883,
      "20": 884,
      "met": 885,
      "used": 886,
      "love": 887,
      "ext": 888,
      "##read": 889,
      "looking": 890,
      "question": 891,
      "##ized": 892,
      "mom": 893,
      "##ness": 894,
      "women": 895,
      "americ": 896,
      "cre": 897,
      "small": 898,
      "att": 899,
      ",\"": 900,
      "##iss": 901,
      "maybe": 902,
      "##ures": 903,
      "eff": 904,
      "example": 905,
      "mus": 906,
      "grow": 907,
      "##az": 908,
      "##ific": 909,
      "el": 910,
      "done": 911,
      "comput": 912,
      "data": 913,
      "partic": 914,
      "##ways": 915,
      "word": 916,
      "##ines": 917,
      "doesn": 918,
      "##ven": 919,
      "cell": 920,
      "gra": 921,
      "##iness": 922,
      "lar": 923,
      "light": 924,
      "far": 925,
      "rep": 926,
      "##ced": 927,
      "##ork": 928,
      "care": 929,
      "##ably": 930,
      "move": 931,
      "bi": 932,
      "beh": 933,
      "read": 934,
      "##cept": 935,
      "bus": 936,
      "##ute": 937,
      "hard": 938,
      "cap": 939,
      "wanted": 940,
      "##ale": 941,
      "whole": 942,
      "war": 943,
      "##gr": 944,
      "gener": 945,
      "second": 946,
      "##conom": 947,
      "sk": 948,
      "chang": 949,
      "live": 950,
      "million": 951,
      "poss": 952,
      "children": 953,
      "##cy": 954,
      "reas": 955,
      "health": 956,
      "econom": 957,
      "inform": 958,
      "trying": 959,
      "working": 960,
      "giv": 961,
      "##ets": 962,
      "building": 963,
      "stu": 964,
      "expl": 965,
      "cor": 966,
      "hand": 967,
      "##ross": 968,
      "##ands": 969,
      "less": 970,
      "always": 971,
      "away": 972,
      "five": 973,
      "##ative": 974,
      "univer": 975,
      "##ational": 976,
      "##selves": 977,
      "believe": 978,
      "##ote": 979,
      "project": 980,
      "##ird": 981,
      "supp": 982,
      "book": 983,
      "##oney": 984,
      "country": 985,
      "everything": 986,
      "anim": 987,
      "afric": 988,
      "space": 989,
      "##per": 990,
      "##ural": 991,
      "##aw": 992,
      "frie": 993,
      "resp": 994,
      "##cer": 995,
      "##ism": 996,
      "open": 997,
      "##ments": 998,
      "run": 999,
      "sub": 1000,
      "pict": 1001,
      "number": 1002,
      "ho": 1003,
      "##ger": 1004,
      "using": 1005,
      "doll": 1006,
      "organ": 1007,
      "cou": 1008,
      "prob": 1009,
      "form": 1010,
      "vis": 1011,
      "##ries": 1012,
      "kids": 1013,
      "##gin": 1014,
      "##ruct": 1015,
      "pres": 1016,
      "##nect": 1017,
      "sing": 1018,
      "ent": 1019,
      "##ract": 1020,
      "mind": 1021,
      "spec": 1022,
      "elect": 1023,
      "##fect": 1024,
      "##aces": 1025,
      "##ah": 1026,
      "means": 1027,
      "thinking": 1028,
      "##air": 1029,
      "information": 1030,
      "##hip": 1031,
      "pub": 1032,
      "home": 1033,
      "lead": 1034,
      "took": 1035,
      "##cr": 1036,
      "compan": 1037,
      "times": 1038,
      "intern": 1039,
      "create": 1040,
      "hal": 1041,
      "reg": 1042,
      "money": 1043,
      "##wh": 1044,
      "walk": 1045,
      "##led": 1046,
      "teach": 1047,
      "acc": 1048,
      "mark": 1049,
      "##gg": 1050,
      "##ks": 1051,
      "left": 1052,
      "red": 1053,
      "food": 1054,
      "head": 1055,
      "process": 1056,
      "become": 1057,
      "##ead": 1058,
      "##vern": 1059,
      "energ": 1060,
      "##ten": 1061,
      "interesting": 1062,
      "quite": 1063,
      "##its": 1064,
      "wo": 1065,
      "govern": 1066,
      "best": 1067,
      "##ues": 1068,
      "social": 1069,
      "jo": 1070,
      "enough": 1071,
      "getting": 1072,
      "##iew": 1073,
      "making": 1074,
      "cle": 1075,
      "fut": 1076,
      "fun": 1077,
      "set": 1078,
      "##ock": 1079,
      "probably": 1080,
      "val": 1081,
      "##ention": 1082,
      "##ps": 1083,
      "##sw": 1084,
      "pat": 1085,
      "bring": 1086,
      "comes": 1087,
      "glob": 1088,
      "half": 1089,
      "sense": 1090,
      "cur": 1091,
      "energy": 1092,
      "contro": 1093,
      "##aut": 1094,
      "##ories": 1095,
      "gre": 1096,
      "cam": 1097,
      "add": 1098,
      "month": 1099,
      "##iting": 1100,
      "##ull": 1101,
      "future": 1102,
      "200": 1103,
      "grou": 1104,
      "##ouse": 1105,
      "##ital": 1106,
      "city": 1107,
      "earth": 1108,
      "answ": 1109,
      "##ont": 1110,
      "happened": 1111,
      "connect": 1112,
      "char": 1113,
      "##ew": 1114,
      "pass": 1115,
      "mar": 1116,
      "sw": 1117,
      "without": 1118,
      "##cover": 1119,
      "pop": 1120,
      "pret": 1121,
      "talking": 1122,
      "##ever": 1123,
      "air": 1124,
      "room": 1125,
      "begin": 1126,
      "env": 1127,
      "body": 1128,
      "##ety": 1129,
      "stuff": 1130,
      "##ier": 1131,
      "phys": 1132,
      "moment": 1133,
      "pretty": 1134,
      "eas": 1135,
      "dist": 1136,
      "side": 1137,
      "##ts": 1138,
      "business": 1139,
      "sign": 1140,
      "hist": 1141,
      "keep": 1142,
      "ty": 1143,
      "science": 1144,
      "##ient": 1145,
      "soci": 1146,
      "##cle": 1147,
      "wee": 1148,
      "beaut": 1149,
      "bad": 1150,
      "told": 1151,
      "such": 1152,
      "model": 1153,
      "##ner": 1154,
      "##ember": 1155,
      "job": 1156,
      "anything": 1157,
      "top": 1158,
      "##cus": 1159,
      "hour": 1160,
      "##der": 1161,
      "##ately": 1162,
      "else": 1163,
      "##duc": 1164,
      "pie": 1165,
      "coming": 1166,
      "men": 1167,
      "wonder": 1168,
      "countries": 1169,
      "dollars": 1170,
      "stop": 1171,
      "##iron": 1172,
      "##ices": 1173,
      "reason": 1174,
      "##ying": 1175,
      "lives": 1176,
      "environ": 1177,
      "opp": 1178,
      "sound": 1179,
      "par": 1180,
      "##ne": 1181,
      "allow": 1182,
      "prof": 1183,
      "##ior": 1184,
      "##lf": 1185,
      "imagine": 1186,
      "hope": 1187,
      "##gs": 1188,
      "once": 1189,
      "prot": 1190,
      "youn": 1191,
      "stand": 1192,
      "across": 1193,
      "educ": 1194,
      "ey": 1195,
      "##no": 1196,
      "living": 1197,
      "##ogra": 1198,
      "matter": 1199,
      "later": 1200,
      "scient": 1201,
      "aut": 1202,
      "six": 1203,
      "africa": 1204,
      "det": 1205,
      "makes": 1206,
      "bre": 1207,
      "mid": 1208,
      "says": 1209,
      "##ertain": 1210,
      "##me": 1211,
      "##uring": 1212,
      "cult": 1213,
      "amaz": 1214,
      "simple": 1215,
      "wa": 1216,
      "global": 1217,
      "seen": 1218,
      "having": 1219,
      "saw": 1220,
      "fig": 1221,
      "sit": 1222,
      "yet": 1223,
      "##olution": 1224,
      "list": 1225,
      "level": 1226,
      "phot": 1227,
      "basically": 1228,
      "##ince": 1229,
      "##earch": 1230,
      "research": 1231,
      "face": 1232,
      "goes": 1233,
      "##res": 1234,
      "remember": 1235,
      "experience": 1236,
      "asked": 1237,
      "conf": 1238,
      "##most": 1239,
      "particular": 1240,
      "##io": 1241,
      "mor": 1242,
      "##pr": 1243,
      "inf": 1244,
      "##ortun": 1245,
      "effect": 1246,
      "##ided": 1247,
      "while": 1248,
      "rob": 1249,
      "okay": 1250,
      "happens": 1251,
      "yes": 1252,
      "mach": 1253,
      "picture": 1254,
      "##ken": 1255,
      "##where": 1256,
      "thous": 1257,
      "stre": 1258,
      "lang": 1259,
      "##ality": 1260,
      "nothing": 1261,
      "prop": 1262,
      "mil": 1263,
      "mem": 1264,
      "##llow": 1265,
      "fore": 1266,
      "complete": 1267,
      "ways": 1268,
      "computer": 1269,
      "family": 1270,
      "young": 1271,
      "environment": 1272,
      "##ings": 1273,
      "answer": 1274,
      "vide": 1275,
      "share": 1276,
      "sure": 1277,
      "##aps": 1278,
      "##ization": 1279,
      "case": 1280,
      "langu": 1281,
      "whether": 1282,
      "##ash": 1283,
      "almost": 1284,
      "loc": 1285,
      "problems": 1286,
      "watch": 1287,
      "rest": 1288,
      "planet": 1289,
      "states": 1290,
      "days": 1291,
      "music": 1292,
      "test": 1293,
      "##man": 1294,
      "##ina": 1295,
      "##ott": 1296,
      "##ilt": 1297,
      "age": 1298,
      "def": 1299,
      "public": 1300,
      "single": 1301,
      "certain": 1302,
      "##imes": 1303,
      "che": 1304,
      "##iter": 1305,
      "both": 1306,
      "inside": 1307,
      "polit": 1308,
      "##ots": 1309,
      "##ograph": 1310,
      "##irl": 1311,
      "##arent": 1312,
      "lab": 1313,
      "within": 1314,
      "##oc": 1315,
      "##gram": 1316,
      "cost": 1317,
      "##work": 1318,
      "##ences": 1319,
      "heart": 1320,
      "everybody": 1321,
      "someone": 1322,
      "##ulation": 1323,
      "unt": 1324,
      "possible": 1325,
      "##ready": 1326,
      "saying": 1327,
      "discover": 1328,
      "##orn": 1329,
      "state": 1330,
      "hear": 1331,
      "pain": 1332,
      "guy": 1333,
      "already": 1334,
      "incred": 1335,
      "self": 1336,
      "##med": 1337,
      "treat": 1338,
      "exact": 1339,
      "suc": 1340,
      "##ins": 1341,
      "##itive": 1342,
      "##allen": 1343,
      "billion": 1344,
      "sou": 1345,
      "contin": 1346,
      "history": 1347,
      "ge": 1348,
      "class": 1349,
      "exc": 1350,
      "##na": 1351,
      "dise": 1352,
      "ideas": 1353,
      "##ters": 1354,
      "wrong": 1355,
      "##ants": 1356,
      "oh": 1357,
      "program": 1358,
      "##osed": 1359,
      "large": 1360,
      "looked": 1361,
      "control": 1362,
      "##ury": 1363,
      "dire": 1364,
      "##ivid": 1365,
      "mag": 1366,
      "##lish": 1367,
      "##ape": 1368,
      "ted": 1369,
      "looks": 1370,
      "##ange": 1371,
      "100": 1372,
      "often": 1373,
      "god": 1374,
      "dev": 1375,
      "product": 1376,
      "vir": 1377,
      "community": 1378,
      "##ank": 1379,
      "sec": 1380,
      "equ": 1381,
      "net": 1382,
      "true": 1383,
      "##oice": 1384,
      "beautif": 1385,
      "news": 1386,
      "amazing": 1387,
      "cond": 1388,
      "girl": 1389,
      "myself": 1390,
      "50": 1391,
      "##ield": 1392,
      "di": 1393,
      "law": 1394,
      "30": 1395,
      "##ron": 1396,
      "##ases": 1397,
      "iss": 1398,
      "cells": 1399,
      "challen": 1400,
      "nor": 1401,
      "kill": 1402,
      "##less": 1403,
      "##dle": 1404,
      "order": 1405,
      "adv": 1406,
      "heard": 1407,
      "##ndred": 1408,
      "hundred": 1409,
      "##ern": 1410,
      "words": 1411,
      "cal": 1412,
      "cancer": 1413,
      "built": 1414,
      "united": 1415,
      "##utes": 1416,
      "instead": 1417,
      "isn": 1418,
      "15": 1419,
      "night": 1420,
      "figure": 1421,
      "video": 1422,
      "sometimes": 1423,
      "government": 1424,
      "##ware": 1425,
      "##imate": 1426,
      "tre": 1427,
      "since": 1428,
      "full": 1429,
      "terr": 1430,
      "##side": 1431,
      "works": 1432,
      "fil": 1433,
      "##ians": 1434,
      "##ages": 1435,
      "ass": 1436,
      "dra": 1437,
      "free": 1438,
      "##aterial": 1439,
      "until": 1440,
      "beautiful": 1441,
      "##vious": 1442,
      "aud": 1443,
      "##ivity": 1444,
      "friends": 1445,
      "pay": 1446,
      "group": 1447,
      "##nding": 1448,
      "months": 1449,
      "language": 1450,
      "market": 1451,
      "##den": 1452,
      "nature": 1453,
      "couple": 1454,
      "oce": 1455,
      "##ling": 1456,
      "individ": 1457,
      "must": 1458,
      "##pect": 1459,
      "entire": 1460,
      "line": 1461,
      "mic": 1462,
      "##land": 1463,
      "third": 1464,
      "incre": 1465,
      "cra": 1466,
      "deep": 1467,
      "house": 1468,
      "##bers": 1469,
      "##row": 1470,
      "##ider": 1471,
      "result": 1472,
      "woman": 1473,
      "##vers": 1474,
      "internet": 1475,
      "ye": 1476,
      "species": 1477,
      "const": 1478,
      "##aper": 1479,
      "follow": 1480,
      "front": 1481,
      "middle": 1482,
      "##ri": 1483,
      "##oy": 1484,
      "education": 1485,
      "piece": 1486,
      "view": 1487,
      "abs": 1488,
      "material": 1489,
      "##ene": 1490,
      "##ake": 1491,
      "##ives": 1492,
      "somebody": 1493,
      "##get": 1494,
      "ret": 1495,
      "engine": 1496,
      "past": 1497,
      "##ream": 1498,
      "places": 1499,
      "train": 1500,
      "##bs": 1501,
      "wasn": 1502,
      "##tern": 1503,
      "individual": 1504,
      "har": 1505,
      "##ustr": 1506,
      "##ental": 1507,
      "universe": 1508,
      "quick": 1509,
      "completely": 1510,
      "exactly": 1511,
      "##br": 1512,
      "av": 1513,
      "##atic": 1514,
      "##ime": 1515,
      "decided": 1516,
      "##ator": 1517,
      "##ired": 1518,
      "behav": 1519,
      "stories": 1520,
      "land": 1521,
      "pos": 1522,
      "though": 1523,
      "ris": 1524,
      "students": 1525,
      "close": 1526,
      "study": 1527,
      "ref": 1528,
      "##..": 1529,
      "##line": 1530,
      "taking": 1531,
      "green": 1532,
      "society": 1533,
      "mass": 1534,
      "name": 1535,
      "arch": 1536,
      "object": 1537,
      "mess": 1538,
      "##0s": 1539,
      "##ibly": 1540,
      "inno": 1541,
      "bab": 1542,
      "yeah": 1543,
      "deal": 1544,
      "huge": 1545,
      "##omes": 1546,
      "became": 1547,
      "collect": 1548,
      "##ined": 1549,
      "##ane": 1550,
      "animals": 1551,
      "turns": 1552,
      "experim": 1553,
      "dru": 1554,
      "rather": 1555,
      "tool": 1556,
      "rev": 1557,
      "happening": 1558,
      "##ared": 1559,
      "everyone": 1560,
      "##gest": 1561,
      "##uck": 1562,
      "##ames": 1563,
      "diff": 1564,
      "knew": 1565,
      "kinds": 1566,
      "company": 1567,
      "bro": 1568,
      "itself": 1569,
      "success": 1570,
      "mother": 1571,
      "sun": 1572,
      "clear": 1573,
      "india": 1574,
      "lau": 1575,
      "struct": 1576,
      "##acter": 1577,
      "learned": 1578,
      "wind": 1579,
      "ant": 1580,
      "ourselves": 1581,
      "##aster": 1582,
      "##ional": 1583,
      "fly": 1584,
      "along": 1585,
      "ste": 1586,
      "minutes": 1587,
      "##ats": 1588,
      "gets": 1589,
      "##ogn": 1590,
      "against": 1591,
      "ele": 1592,
      "##ond": 1593,
      "complex": 1594,
      "game": 1595,
      "##ability": 1596,
      "miss": 1597,
      "meet": 1598,
      "questions": 1599,
      "hy": 1600,
      "america": 1601,
      "hours": 1602,
      "prov": 1603,
      "leg": 1604,
      "univers": 1605,
      "##haps": 1606,
      "perhaps": 1607,
      "...": 1608,
      "bott": 1609,
      "ra": 1610,
      "step": 1611,
      "opportun": 1612,
      "ed": 1613,
      "norm": 1614,
      "themselves": 1615,
      "black": 1616,
      "invest": 1617,
      "##cc": 1618,
      "##icult": 1619,
      "relations": 1620,
      "##ision": 1621,
      "dep": 1622,
      "##itting": 1623,
      "american": 1624,
      "created": 1625,
      "##sy": 1626,
      "mill": 1627,
      "parent": 1628,
      "vi": 1629,
      "fund": 1630,
      "hold": 1631,
      "##vation": 1632,
      "ones": 1633,
      "##etic": 1634,
      "century": 1635,
      "others": 1636,
      "coll": 1637,
      "focus": 1638,
      "couldn": 1639,
      "math": 1640,
      "guys": 1641,
      "ple": 1642,
      "happy": 1643,
      "rad": 1644,
      "won": 1645,
      "listen": 1646,
      "eur": 1647,
      "expect": 1648,
      "dem": 1649,
      "meas": 1650,
      "liter": 1651,
      "##urs": 1652,
      "del": 1653,
      "south": 1654,
      "least": 1655,
      "thousands": 1656,
      "##cing": 1657,
      "neur": 1658,
      "pred": 1659,
      "mot": 1660,
      "worked": 1661,
      "early": 1662,
      "##wards": 1663,
      "difficult": 1664,
      "natural": 1665,
      "disease": 1666,
      "##lud": 1667,
      "##ush": 1668,
      "lots": 1669,
      "based": 1670,
      "var": 1671,
      "##ming": 1672,
      "es": 1673,
      "##rib": 1674,
      "##ones": 1675,
      "seven": 1676,
      "field": 1677,
      "china": 1678,
      "sens": 1679,
      "##ential": 1680,
      "speak": 1681,
      "finally": 1682,
      "cau": 1683,
      "cir": 1684,
      "##face": 1685,
      "bra": 1686,
      "gave": 1687,
      "##ients": 1688,
      "fre": 1689,
      "chr": 1690,
      "oper": 1691,
      "machine": 1692,
      "cut": 1693,
      "##ented": 1694,
      "protect": 1695,
      "systems": 1696,
      "death": 1697,
      "##ctor": 1698,
      "team": 1699,
      "recent": 1700,
      "##ological": 1701,
      "sex": 1702,
      "##istic": 1703,
      "##ples": 1704,
      "obvious": 1705,
      "appro": 1706,
      "learning": 1707,
      "oil": 1708,
      "amount": 1709,
      "##rop": 1710,
      "##olved": 1711,
      "exist": 1712,
      "##ium": 1713,
      "record": 1714,
      "micro": 1715,
      "behavior": 1716,
      "dig": 1717,
      "grand": 1718,
      "ocean": 1719,
      "colle": 1720,
      "pot": 1721,
      "##ither": 1722,
      "outside": 1723,
      "interact": 1724,
      "super": 1725,
      "north": 1726,
      "taken": 1727,
      "relationship": 1728,
      "##ted": 1729,
      "##ination": 1730,
      "extra": 1731,
      "fish": 1732,
      "fail": 1733,
      "demo": 1734,
      "difference": 1735,
      "eight": 1736,
      "##ially": 1737,
      "area": 1738,
      "blue": 1739,
      "scale": 1740,
      "network": 1741,
      "##cul": 1742,
      "bar": 1743,
      "given": 1744,
      "##ns": 1745,
      "europe": 1746,
      "patter": 1747,
      "##que": 1748,
      "short": 1749,
      "changed": 1750,
      "##not": 1751,
      "moving": 1752,
      "york": 1753,
      "##ident": 1754,
      "non": 1755,
      "sym": 1756,
      "common": 1757,
      "##sych": 1758,
      "jour": 1759,
      "lim": 1760,
      "hands": 1761,
      "during": 1762,
      "cities": 1763,
      "perform": 1764,
      "yourself": 1765,
      "easy": 1766,
      "##ature": 1767,
      "beginning": 1768,
      "typ": 1769,
      "leave": 1770,
      "whatever": 1771,
      "##ides": 1772,
      "##unch": 1773,
      "arg": 1774,
      "##ully": 1775,
      "ca": 1776,
      "psych": 1777,
      "eyes": 1778,
      "12": 1779,
      "occ": 1780,
      "friend": 1781,
      "##gress": 1782,
      "wall": 1783,
      "behind": 1784,
      "maj": 1785,
      "tem": 1786,
      "turned": 1787,
      "##att": 1788,
      "sent": 1789,
      "takes": 1790,
      "support": 1791,
      "low": 1792,
      "##utions": 1793,
      "##verage": 1794,
      "explain": 1795,
      "population": 1796,
      "culture": 1797,
      "sum": 1798,
      "trad": 1799,
      "audience": 1800,
      "needs": 1801,
      "ident": 1802,
      "terms": 1803,
      "chem": 1804,
      "seeing": 1805,
      "communic": 1806,
      "wonderful": 1807,
      "local": 1808,
      "instit": 1809,
      "poor": 1810,
      "opt": 1811,
      "event": 1812,
      "absol": 1813,
      "##itions": 1814,
      "perfect": 1815,
      "18": 1816,
      "pick": 1817,
      "paper": 1818,
      "##ency": 1819,
      "break": 1820,
      "size": 1821,
      "impro": 1822,
      "reach": 1823,
      "companies": 1824,
      "fall": 1825,
      "absolute": 1826,
      "pract": 1827,
      "center": 1828,
      "media": 1829,
      "extre": 1830,
      "tot": 1831,
      "##ump": 1832,
      "stay": 1833,
      "consum": 1834,
      "serv": 1835,
      "##inary": 1836,
      "ess": 1837,
      "##astic": 1838,
      "began": 1839,
      "sud": 1840,
      "parts": 1841,
      "dark": 1842,
      "##ply": 1843,
      "cannot": 1844,
      "foot": 1845,
      "##ipp": 1846,
      "major": 1847,
      "image": 1848,
      "economic": 1849,
      "##idence": 1850,
      "simply": 1851,
      "week": 1852,
      "##aring": 1853,
      "powerful": 1854,
      "dream": 1855,
      "access": 1856,
      "ill": 1857,
      "##itch": 1858,
      "squ": 1859,
      "longer": 1860,
      "##ster": 1861,
      "ap": 1862,
      "cy": 1863,
      "viol": 1864,
      "resour": 1865,
      "needed": 1866,
      "special": 1867,
      "realized": 1868,
      "##cra": 1869,
      "##elt": 1870,
      "eat": 1871,
      "ground": 1872,
      "##ges": 1873,
      "sea": 1874,
      "sour": 1875,
      "national": 1876,
      "##itect": 1877,
      "buy": 1878,
      "architect": 1879,
      "parents": 1880,
      "##fully": 1881,
      "##cious": 1882,
      "feed": 1883,
      "repres": 1884,
      "press": 1885,
      "emb": 1886,
      "emot": 1887,
      "##ton": 1888,
      "##arch": 1889,
      "white": 1890,
      "known": 1891,
      "personal": 1892,
      "famil": 1893,
      "enc": 1894,
      "40": 1895,
      "rich": 1896,
      "tried": 1897,
      "humans": 1898,
      "transform": 1899,
      "robot": 1900,
      "civ": 1901,
      "profess": 1902,
      "priv": 1903,
      "reality": 1904,
      "surpr": 1905,
      "surv": 1906,
      "growth": 1907,
      "present": 1908,
      "interested": 1909,
      "father": 1910,
      "includ": 1911,
      "gone": 1912,
      "##ret": 1913,
      "conv": 1914,
      "felt": 1915,
      "win": 1916,
      "key": 1917,
      "situ": 1918,
      "strong": 1919,
      "either": 1920,
      "##osp": 1921,
      "##ains": 1922,
      "quickly": 1923,
      "##ising": 1924,
      "pen": 1925,
      "##ison": 1926,
      "##rought": 1927,
      "recogn": 1928,
      "##ledge": 1929,
      "##iving": 1930,
      "##ised": 1931,
      "near": 1932,
      "##ilar": 1933,
      "cool": 1934,
      "sil": 1935,
      "spend": 1936,
      "direct": 1937,
      "##mer": 1938,
      "##ibility": 1939,
      "##ivers": 1940,
      "slow": 1941,
      "value": 1942,
      "consider": 1943,
      "sudden": 1944,
      "fear": 1945,
      "##aking": 1946,
      "##up": 1947,
      "dna": 1948,
      "##hood": 1949,
      "requ": 1950,
      "spent": 1951,
      "descr": 1952,
      "animal": 1953,
      "##app": 1954,
      "##gen": 1955,
      "ability": 1956,
      "##ode": 1957,
      "##avor": 1958,
      "opportunity": 1959,
      "approach": 1960,
      "vers": 1961,
      "feet": 1962,
      "dest": 1963,
      "sitting": 1964,
      "mult": 1965,
      "##ged": 1966,
      "phone": 1967,
      "rock": 1968,
      "shows": 1969,
      "travel": 1970,
      "pur": 1971,
      "weeks": 1972,
      "political": 1973,
      "##bo": 1974,
      "##inal": 1975,
      "lost": 1976,
      "##ney": 1977,
      "wouldn": 1978,
      "##anger": 1979,
      "obs": 1980,
      "incredible": 1981,
      "orig": 1982,
      "ice": 1983,
      "sever": 1984,
      "##acy": 1985,
      "surface": 1986,
      "vol": 1987,
      "##els": 1988,
      "nice": 1989,
      "ur": 1990,
      "##xy": 1991,
      "##ators": 1992,
      "morning": 1993,
      "sat": 1994,
      "force": 1995,
      "blood": 1996,
      "write": 1997,
      "street": 1998,
      "##rent": 1999,
      "economy": 2000,
      "cop": 2001,
      "respons": 2002,
      "leaders": 2003,
      "bottom": 2004,
      "fast": 2005,
      "##li": 2006,
      "extreme": 2007,
      "bill": 2008,
      "##ument": 2009,
      "##ler": 2010,
      "medic": 2011,
      "draw": 2012,
      "25": 2013,
      "##room": 2014,
      "technolog": 2015,
      "predict": 2016,
      "##izing": 2017,
      "measure": 2018,
      "patients": 2019,
      "soft": 2020,
      "evolution": 2021,
      "camer": 2022,
      "areas": 2023,
      "##ards": 2024,
      "structure": 2025,
      "box": 2026,
      "growing": 2027,
      "ce": 2028,
      "##ived": 2029,
      "caus": 2030,
      "##ades": 2031,
      "attention": 2032,
      "photograph": 2033,
      "##ony": 2034,
      "anyone": 2035,
      "arm": 2036,
      "die": 2037,
      "prin": 2038,
      "similar": 2039,
      "fight": 2040,
      "pull": 2041,
      "mole": 2042,
      "impact": 2043,
      "average": 2044,
      "##ering": 2045,
      "crit": 2046,
      "changes": 2047,
      "##hor": 2048,
      "##ule": 2049,
      "challenge": 2050,
      "indust": 2051,
      "ir": 2052,
      "##ny": 2053,
      "unf": 2054,
      "forward": 2055,
      "relig": 2056,
      "born": 2057,
      "##iny": 2058,
      "##ows": 2059,
      "insp": 2060,
      "books": 2061,
      "##ouch": 2062,
      "##ales": 2063,
      "##ively": 2064,
      "numbers": 2065,
      "bene": 2066,
      "##cially": 2067,
      "meaning": 2068,
      "risk": 2069,
      "fire": 2070,
      "enter": 2071,
      "civil": 2072,
      "voice": 2073,
      "##erm": 2074,
      "##arr": 2075,
      "knowledge": 2076,
      "realize": 2077,
      "stage": 2078,
      "brought": 2079,
      "##uth": 2080,
      "##entially": 2081,
      "worth": 2082,
      "climate": 2083,
      "physical": 2084,
      "##ustain": 2085,
      "color": 2086,
      "redu": 2087,
      "hor": 2088,
      "hot": 2089,
      "stra": 2090,
      "inde": 2091,
      "feeling": 2092,
      "est": 2093,
      "##ford": 2094,
      "comb": 2095,
      "developed": 2096,
      "camp": 2097,
      "##ateg": 2098,
      "##ral": 2099,
      "##lt": 2100,
      "anal": 2101,
      "hundreds": 2102,
      "##ids": 2103,
      "giving": 2104,
      "scientists": 2105,
      "vill": 2106,
      "tele": 2107,
      "##ption": 2108,
      "film": 2109,
      "sho": 2110,
      "map": 2111,
      "main": 2112,
      "running": 2113,
      "dim": 2114,
      "fac": 2115,
      "hosp": 2116,
      "sle": 2117,
      "##end": 2118,
      "repl": 2119,
      "##bor": 2120,
      "type": 2121,
      "literally": 2122,
      "experiment": 2123,
      "##rodu": 2124,
      "theory": 2125,
      "seems": 2126,
      "term": 2127,
      "ach": 2128,
      "nu": 2129,
      "dead": 2130,
      "serious": 2131,
      "development": 2132,
      "technologies": 2133,
      "ah": 2134,
      "soon": 2135,
      "mov": 2136,
      "circ": 2137,
      "mount": 2138,
      "##ala": 2139,
      "rele": 2140,
      "conc": 2141,
      "post": 2142,
      "wrote": 2143,
      "fundam": 2144,
      "##lu": 2145,
      "##zy": 2146,
      "##eter": 2147,
      "spread": 2148,
      "english": 2149,
      "##ped": 2150,
      "web": 2151,
      "##ife": 2152,
      "cars": 2153,
      "drop": 2154,
      "electric": 2155,
      "current": 2156,
      "depe": 2157,
      "understanding": 2158,
      "absolutely": 2159,
      "##bon": 2160,
      "starting": 2161,
      "transp": 2162,
      "millions": 2163,
      "sustain": 2164,
      "##he": 2165,
      "stat": 2166,
      "##ified": 2167,
      "##ored": 2168,
      "scre": 2169,
      "guess": 2170,
      "revolution": 2171,
      "miles": 2172,
      "tradition": 2173,
      "pa": 2174,
      "neigh": 2175,
      "##ellig": 2176,
      "favor": 2177,
      "images": 2178,
      "modern": 2179,
      "##ned": 2180,
      "nobody": 2181,
      "among": 2182,
      "prom": 2183,
      "movement": 2184,
      "general": 2185,
      "normal": 2186,
      "sn": 2187,
      "##ills": 2188,
      "dou": 2189,
      "path": 2190,
      "intellig": 2191,
      "poll": 2192,
      "compet": 2193,
      "##amed": 2194,
      "compass": 2195,
      "##ove": 2196,
      "##chan": 2197,
      "visual": 2198,
      "recently": 2199,
      "ball": 2200,
      "##par": 2201,
      "alone": 2202,
      "sugg": 2203,
      "gives": 2204,
      "suggest": 2205,
      "hon": 2206,
      "road": 2207,
      "tools": 2208,
      "telling": 2209,
      "flo": 2210,
      "baby": 2211,
      "touch": 2212,
      "describ": 2213,
      "fur": 2214,
      "hun": 2215,
      "playing": 2216,
      "##old": 2217,
      "sell": 2218,
      "truth": 2219,
      "rul": 2220,
      "hig": 2221,
      "except": 2222,
      "##ression": 2223,
      "polic": 2224,
      "creating": 2225,
      "issue": 2226,
      "##to": 2227,
      "online": 2228,
      "changing": 2229,
      "mathem": 2230,
      "##por": 2231,
      "avail": 2232,
      "##ister": 2233,
      "##ilities": 2234,
      "discovered": 2235,
      "##ensive": 2236,
      "patient": 2237,
      "emp": 2238,
      "developing": 2239,
      "track": 2240,
      "##bit": 2241,
      "##ging": 2242,
      "concept": 2243,
      "affect": 2244,
      "phil": 2245,
      "eye": 2246,
      "song": 2247,
      "peace": 2248,
      "##ift": 2249,
      "##ites": 2250,
      "seem": 2251,
      "showed": 2252,
      "ec": 2253,
      "sold": 2254,
      "text": 2255,
      "##ploy": 2256,
      "##clear": 2257,
      "##aged": 2258,
      "innovation": 2259,
      "industry": 2260,
      "save": 2261,
      "##oun": 2262,
      "##ban": 2263,
      "##vent": 2264,
      "boy": 2265,
      "obviously": 2266,
      "compassion": 2267,
      "arr": 2268,
      "lay": 2269,
      "##pecially": 2270,
      "medical": 2271,
      "university": 2272,
      "especially": 2273,
      "achie": 2274,
      "mechan": 2275,
      "benef": 2276,
      "ult": 2277,
      "##ero": 2278,
      "asking": 2279,
      "designed": 2280,
      "fair": 2281,
      "##oud": 2282,
      "react": 2283,
      "##iant": 2284,
      "##ased": 2285,
      "chance": 2286,
      "incredibly": 2287,
      "resources": 2288,
      "led": 2289,
      "##let": 2290,
      "carbon": 2291,
      "##asing": 2292,
      "shape": 2293,
      "talked": 2294,
      "subject": 2295,
      "##ried": 2296,
      "##urity": 2297,
      "peri": 2298,
      "anybody": 2299,
      "flow": 2300,
      "aw": 2301,
      "convers": 2302,
      "issues": 2303,
      "park": 2304,
      "##asc": 2305,
      "##oph": 2306,
      "period": 2307,
      "haven": 2308,
      "flu": 2309,
      "produce": 2310,
      "reasons": 2311,
      "please": 2312,
      "dom": 2313,
      "##gn": 2314,
      "search": 2315,
      "speed": 2316,
      "##inese": 2317,
      "11": 2318,
      "er": 2319,
      "rate": 2320,
      "cover": 2321,
      "experi": 2322,
      "choice": 2323,
      "##ished": 2324,
      "writing": 2325,
      "generation": 2326,
      "bird": 2327,
      "nine": 2328,
      "knows": 2329,
      "available": 2330,
      "din": 2331,
      "aren": 2332,
      "evidence": 2333,
      "grad": 2334,
      "##ique": 2335,
      "trust": 2336,
      "##ival": 2337,
      "solution": 2338,
      "attack": 2339,
      "pictures": 2340,
      "message": 2341,
      "sleep": 2342,
      "deg": 2343,
      "tiny": 2344,
      "##ances": 2345,
      "goog": 2346,
      "##ther": 2347,
      "neg": 2348,
      "computers": 2349,
      "girls": 2350,
      "lived": 2351,
      "chinese": 2352,
      "##apt": 2353,
      "involved": 2354,
      "solar": 2355,
      "report": 2356,
      "situation": 2357,
      "ast": 2358,
      "199": 2359,
      "bed": 2360,
      "emerg": 2361,
      "forest": 2362,
      "solve": 2363,
      "quality": 2364,
      "smart": 2365,
      "source": 2366,
      "dimens": 2367,
      "port": 2368,
      "bey": 2369,
      "##iction": 2370,
      "fa": 2371,
      "choo": 2372,
      "office": 2373,
      "fem": 2374,
      "defin": 2375,
      "becomes": 2376,
      "function": 2377,
      "sounds": 2378,
      "beyond": 2379,
      "bigger": 2380,
      "bal": 2381,
      "##xic": 2382,
      "##erv": 2383,
      "##ify": 2384,
      "putting": 2385,
      "several": 2386,
      "indeed": 2387,
      "imm": 2388,
      "da": 2389,
      "ep": 2390,
      "safe": 2391,
      "groups": 2392,
      "##ude": 2393,
      "##nch": 2394,
      "##ops": 2395,
      "drive": 2396,
      "conscious": 2397,
      "tas": 2398,
      "star": 2399,
      "software": 2400,
      "table": 2401,
      "security": 2402,
      "democra": 2403,
      "bacter": 2404,
      "lif": 2405,
      "progress": 2406,
      "drugs": 2407,
      "capital": 2408,
      "hit": 2409,
      "##oices": 2410,
      "##lict": 2411,
      "likely": 2412,
      "##istan": 2413,
      "lea": 2414,
      "rules": 2415,
      "##arily": 2416,
      "died": 2417,
      "danger": 2418,
      "sam": 2419,
      "west": 2420,
      "send": 2421,
      "##une": 2422,
      "60": 2423,
      "mal": 2424,
      "##ference": 2425,
      "block": 2426,
      "certainly": 2427,
      "drug": 2428,
      "link": 2429,
      "wish": 2430,
      "towards": 2431,
      "##ishing": 2432,
      "##oms": 2433,
      "##osph": 2434,
      "prim": 2435,
      "eth": 2436,
      "##ley": 2437,
      "necess": 2438,
      "device": 2439,
      "##yn": 2440,
      "##ze": 2441,
      "plant": 2442,
      "adm": 2443,
      "breat": 2444,
      "pu": 2445,
      "##ffer": 2446,
      "##ese": 2447,
      "tend": 2448,
      "effic": 2449,
      "international": 2450,
      "scientific": 2451,
      "##ips": 2452,
      "walking": 2453,
      "google": 2454,
      "##ex": 2455,
      "notice": 2456,
      "action": 2457,
      "particularly": 2458,
      "##fort": 2459,
      "##oring": 2460,
      "##abor": 2461,
      "aware": 2462,
      "cause": 2463,
      "##usion": 2464,
      "##ously": 2465,
      "interv": 2466,
      "rid": 2467,
      "##ram": 2468,
      "##by": 2469,
      "capt": 2470,
      "lad": 2471,
      "log": 2472,
      "##amm": 2473,
      "princi": 2474,
      "bur": 2475,
      "east": 2476,
      "tar": 2477,
      "##go": 2478,
      "suddenly": 2479,
      "cross": 2480,
      "dan": 2481,
      "pan": 2482,
      "##ext": 2483,
      "schools": 2484,
      "minute": 2485,
      "vision": 2486,
      "character": 2487,
      "virt": 2488,
      "virus": 2489,
      "square": 2490,
      "games": 2491,
      "##str": 2492,
      "moved": 2493,
      "##ief": 2494,
      "clos": 2495,
      "anyway": 2496,
      "basic": 2497,
      "digital": 2498,
      "extraord": 2499,
      "mob": 2500,
      "cris": 2501,
      "div": 2502,
      "rece": 2503,
      "onto": 2504,
      "##umb": 2505,
      "eventually": 2506,
      "screen": 2507,
      "son": 2508,
      "##gth": 2509,
      "everywhere": 2510,
      "potential": 2511,
      "##ctors": 2512,
      "stru": 2513,
      "positive": 2514,
      "cit": 2515,
      "##omet": 2516,
      "vari": 2517,
      "##rast": 2518,
      "##light": 2519,
      "##oming": 2520,
      "door": 2521,
      "largest": 2522,
      "farm": 2523,
      "conflict": 2524,
      "bir": 2525,
      "rain": 2526,
      "activ": 2527,
      "student": 2528,
      "particip": 2529,
      "sky": 2530,
      "jobs": 2531,
      "materials": 2532,
      "gas": 2533,
      "zero": 2534,
      "##use": 2535,
      "##book": 2536,
      "showing": 2537,
      "##ressed": 2538,
      "projects": 2539,
      "teachers": 2540,
      "check": 2541,
      "##medi": 2542,
      "##ug": 2543,
      "##uly": 2544,
      "##po": 2545,
      "examples": 2546,
      "clean": 2547,
      "totally": 2548,
      "journey": 2549,
      "sand": 2550,
      "##ik": 2551,
      "laugh": 2552,
      "extremely": 2553,
      "chemical": 2554,
      "fix": 2555,
      "##iar": 2556,
      "happiness": 2557,
      "suffer": 2558,
      "context": 2559,
      "ready": 2560,
      "account": 2561,
      "pattern": 2562,
      "hospital": 2563,
      "##ground": 2564,
      "labor": 2565,
      "fant": 2566,
      "wants": 2567,
      "terror": 2568,
      "violence": 2569,
      "represent": 2570,
      "fundamental": 2571,
      "la": 2572,
      "stick": 2573,
      "##ores": 2574,
      "starts": 2575,
      "biggest": 2576,
      "memory": 2577,
      "exciting": 2578,
      "carry": 2579,
      "detail": 2580,
      "results": 2581,
      "further": 2582,
      "skin": 2583,
      "apart": 2584,
      "higher": 2585,
      "democracy": 2586,
      "spir": 2587,
      "joh": 2588,
      "cart": 2589,
      "vac": 2590,
      "##ners": 2591,
      "threat": 2592,
      "##verty": 2593,
      "##ims": 2594,
      "poverty": 2595,
      "essentially": 2596,
      "neighbor": 2597,
      "san": 2598,
      "##onse": 2599,
      "wait": 2600,
      "thousand": 2601,
      "camera": 2602,
      "bom": 2603,
      "dam": 2604,
      "sal": 2605,
      "deliver": 2606,
      "village": 2607,
      "isl": 2608,
      "meant": 2609,
      "500": 2610,
      "##enom": 2611,
      "##itary": 2612,
      "organization": 2613,
      "college": 2614,
      "trial": 2615,
      "complic": 2616,
      "##antly": 2617,
      "creative": 2618,
      "connected": 2619,
      "citiz": 2620,
      "cat": 2621,
      "fill": 2622,
      "los": 2623,
      "imposs": 2624,
      "role": 2625,
      "medicine": 2626,
      "rap": 2627,
      "brit": 2628,
      "continue": 2629,
      "birth": 2630,
      "bank": 2631,
      "##apan": 2632,
      "supposed": 2633,
      "response": 2634,
      "models": 2635,
      "doctor": 2636,
      "sequ": 2637,
      "adult": 2638,
      "trees": 2639,
      "crazy": 2640,
      "improve": 2641,
      "ban": 2642,
      "japan": 2643,
      "##uit": 2644,
      "##augh": 2645,
      "graph": 2646,
      "##cuss": 2647,
      "gala": 2648,
      "named": 2649,
      "##ring": 2650,
      "##icle": 2651,
      "separ": 2652,
      "##itten": 2653,
      "clin": 2654,
      "favorite": 2655,
      "16": 2656,
      "##ma": 2657,
      "tom": 2658,
      "immedi": 2659,
      "teacher": 2660,
      "##oid": 2661,
      "##aught": 2662,
      "finding": 2663,
      "meth": 2664,
      "individuals": 2665,
      "nuclear": 2666,
      "faster": 2667,
      "luck": 2668,
      "push": 2669,
      "##how": 2670,
      "##isions": 2671,
      "usually": 2672,
      "transl": 2673,
      "diag": 2674,
      "return": 2675,
      "mathemat": 2676,
      "bud": 2677,
      "mine": 2678,
      "plants": 2679,
      "watching": 2680,
      "lose": 2681,
      "page": 2682,
      "##ruction": 2683,
      "collabor": 2684,
      "freed": 2685,
      "bunch": 2686,
      "##lo": 2687,
      "waste": 2688,
      "cold": 2689,
      "thanks": 2690,
      "magn": 2691,
      "##amp": 2692,
      "enj": 2693,
      "activity": 2694,
      "##ires": 2695,
      "buildings": 2696,
      "late": 2697,
      "pack": 2698,
      "wild": 2699,
      "##ulate": 2700,
      "syn": 2701,
      "perspect": 2702,
      "assum": 2703,
      "impossible": 2704,
      "concer": 2705,
      "somewhere": 2706,
      "accept": 2707,
      "african": 2708,
      ".,": 2709,
      "##iger": 2710,
      "ang": 2711,
      "deb": 2712,
      "tells": 2713,
      "remark": 2714,
      "strateg": 2715,
      "unfortun": 2716,
      "80": 2717,
      "offer": 2718,
      "webs": 2719,
      "goal": 2720,
      "worse": 2721,
      "disapp": 2722,
      "blind": 2723,
      "passion": 2724,
      "choose": 2725,
      "##odies": 2726,
      "brains": 2727,
      "conditions": 2728,
      "14": 2729,
      "fing": 2730,
      "fine": 2731,
      "hop": 2732,
      "hiv": 2733,
      "lower": 2734,
      "doc": 2735,
      "central": 2736,
      "grew": 2737,
      "movie": 2738,
      "code": 2739,
      "mis": 2740,
      "site": 2741,
      "communities": 2742,
      "shown": 2743,
      "manage": 2744,
      "specific": 2745,
      "lands": 2746,
      "ended": 2747,
      "201": 2748,
      "objects": 2749,
      "launch": 2750,
      "purp": 2751,
      "##erve": 2752,
      "##eth": 2753,
      "##ently": 2754,
      "appear": 2755,
      "detect": 2756,
      "burn": 2757,
      "##nal": 2758,
      "##idge": 2759,
      "heav": 2760,
      "rights": 2761,
      "roll": 2762,
      "sorts": 2763,
      "larger": 2764,
      "publish": 2765,
      "colleag": 2766,
      "extraordinary": 2767,
      "kil": 2768,
      "rand": 2769,
      "##ipt": 2770,
      "coun": 2771,
      "ger": 2772,
      "ann": 2773,
      "above": 2774,
      "author": 2775,
      "##mend": 2776,
      "##osphere": 2777,
      "finan": 2778,
      "dad": 2779,
      "king": 2780,
      "taught": 2781,
      "##ought": 2782,
      "somehow": 2783,
      "17": 2784,
      "cook": 2785,
      "fle": 2786,
      "##atory": 2787,
      "##ama": 2788,
      "##oles": 2789,
      "studies": 2790,
      "##inct": 2791,
      "##ana": 2792,
      "stars": 2793,
      "killed": 2794,
      "temper": 2795,
      "including": 2796,
      "traditional": 2797,
      "jud": 2798,
      "oxy": 2799,
      "##cape": 2800,
      "whe": 2801,
      "##akes": 2802,
      "signific": 2803,
      "standing": 2804,
      "card": 2805,
      "mir": 2806,
      "forms": 2807,
      "however": 2808,
      "prote": 2809,
      "moral": 2810,
      "influ": 2811,
      "products": 2812,
      "training": 2813,
      "wife": 2814,
      "##ued": 2815,
      "town": 2816,
      "gold": 2817,
      "##uss": 2818,
      "introdu": 2819,
      "allowed": 2820,
      "desp": 2821,
      "board": 2822,
      "##others": 2823,
      "corre": 2824,
      "chris": 2825,
      "complicated": 2826,
      "##more": 2827,
      "##cise": 2828,
      "##imp": 2829,
      "older": 2830,
      "christ": 2831,
      "tree": 2832,
      "##estern": 2833,
      "therefore": 2834,
      "alth": 2835,
      "muse": 2836,
      "position": 2837,
      "cases": 2838,
      "truly": 2839,
      "upon": 2840,
      "##izations": 2841,
      "quant": 2842,
      "print": 2843,
      "service": 2844,
      "mist": 2845,
      "##sect": 2846,
      "##rage": 2847,
      "reading": 2848,
      "clearly": 2849,
      "crisis": 2850,
      "although": 2851,
      "##ping": 2852,
      "throw": 2853,
      "doctors": 2854,
      "prison": 2855,
      "afford": 2856,
      "discuss": 2857,
      "##ounds": 2858,
      "##ffic": 2859,
      "allows": 2860,
      "increase": 2861,
      "##enomen": 2862,
      "hur": 2863,
      "pal": 2864,
      "##come": 2865,
      "alive": 2866,
      "phenomen": 2867,
      "series": 2868,
      "families": 2869,
      "critical": 2870,
      "electricity": 2871,
      "infect": 2872,
      "##emic": 2873,
      "unc": 2874,
      "points": 2875,
      "distrib": 2876,
      "excited": 2877,
      "successful": 2878,
      "urban": 2879,
      "bacteria": 2880,
      "fra": 2881,
      "##lier": 2882,
      "price": 2883,
      "beings": 2884,
      "income": 2885,
      "decision": 2886,
      "engage": 2887,
      "increasing": 2888,
      "198": 2889,
      "swe": 2890,
      "tun": 2891,
      "##aur": 2892,
      "##set": 2893,
      "##ured": 2894,
      "##tend": 2895,
      "glass": 2896,
      "respect": 2897,
      "biology": 2898,
      "region": 2899,
      "magic": 2900,
      "freedom": 2901,
      "museum": 2902,
      "lines": 2903,
      "mention": 2904,
      "ine": 2905,
      "fort": 2906,
      "police": 2907,
      "americans": 2908,
      "healthy": 2909,
      "fasc": 2910,
      "ign": 2911,
      "##cl": 2912,
      "anywhere": 2913,
      "written": 2914,
      "strange": 2915,
      "physics": 2916,
      "pieces": 2917,
      "robots": 2918,
      "military": 2919,
      "calcul": 2920,
      "architecture": 2921,
      "policy": 2922,
      "achieve": 2923,
      "hom": 2924,
      "sad": 2925,
      "##sh": 2926,
      "##oke": 2927,
      "##iced": 2928,
      "expert": 2929,
      "content": 2930,
      "throughout": 2931,
      "secret": 2932,
      "perspective": 2933,
      "!\"": 2934,
      "sus": 2935,
      "##ining": 2936,
      "treatment": 2937,
      "patterns": 2938,
      "straight": 2939,
      "conversation": 2940,
      "sor": 2941,
      "western": 2942,
      "##isms": 2943,
      "weight": 2944,
      "hell": 2945,
      "smaller": 2946,
      "vict": 2947,
      "##inated": 2948,
      "provide": 2949,
      "occur": 2950,
      "shap": 2951,
      "spect": 2952,
      "enorm": 2953,
      "tv": 2954,
      "cloud": 2955,
      "kept": 2956,
      "seconds": 2957,
      "clim": 2958,
      "##soci": 2959,
      "himself": 2960,
      "slight": 2961,
      "molec": 2962,
      "ara": 2963,
      "trou": 2964,
      "##ologists": 2965,
      "neurons": 2966,
      "version": 2967,
      "mars": 2968,
      "##ror": 2969,
      "actual": 2970,
      "saving": 2971,
      "industr": 2972,
      "machines": 2973,
      "recognize": 2974,
      "transport": 2975,
      "hey": 2976,
      "unfortunately": 2977,
      "ran": 2978,
      "dog": 2979,
      "genes": 2980,
      "fantastic": 2981,
      "trade": 2982,
      "##ung": 2983,
      "propert": 2984,
      "##ech": 2985,
      "##fact": 2986,
      "anymore": 2987,
      "earlier": 2988,
      "address": 2989,
      "reflect": 2990,
      "private": 2991,
      "catch": 2992,
      "##dom": 2993,
      "##ulf": 2994,
      "##aging": 2995,
      "afgh": 2996,
      "hero": 2997,
      "greater": 2998,
      "##ission": 2999,
      "performance": 3000,
      "13": 3001,
      "mental": 3002,
      "narr": 3003,
      "shot": 3004,
      "trick": 3005,
      "veh": 3006,
      "scr": 3007,
      "effort": 3008,
      "industrial": 3009,
      "##oon": 3010,
      "driving": 3011,
      "##ube": 3012,
      "environmental": 3013,
      "listening": 3014,
      "21": 3015,
      "bodies": 3016,
      "range": 3017,
      "##men": 3018,
      "init": 3019,
      "associ": 3020,
      "becoming": 3021,
      "##phone": 3022,
      "autom": 3023,
      "effective": 3024,
      "##iversity": 3025,
      "intelligence": 3026,
      "daugh": 3027,
      "od": 3028,
      "rise": 3029,
      "##zz": 3030,
      "comfort": 3031,
      "##uments": 3032,
      "loved": 3033,
      "contrib": 3034,
      "remind": 3035,
      "jump": 3036,
      "wer": 3037,
      "famous": 3038,
      "painting": 3039,
      "yell": 3040,
      "##met": 3041,
      "##eties": 3042,
      "store": 3043,
      "alg": 3044,
      "decisions": 3045,
      "production": 3046,
      "electr": 3047,
      "interview": 3048,
      "den": 3049,
      "liber": 3050,
      "##rap": 3051,
      "##cient": 3052,
      "legs": 3053,
      "willing": 3054,
      "email": 3055,
      "skills": 3056,
      "determ": 3057,
      "innov": 3058,
      "broad": 3059,
      "weren": 3060,
      "none": 3061,
      "tur": 3062,
      "##egr": 3063,
      "##bol": 3064,
      "thr": 3065,
      "atm": 3066,
      "##iling": 3067,
      "expensive": 3068,
      "employ": 3069,
      "genetic": 3070,
      "president": 3071,
      "##rep": 3072,
      "exh": 3073,
      "##ained": 3074,
      "final": 3075,
      "familiar": 3076,
      "dangerous": 3077,
      "et": 3078,
      "hall": 3079,
      "##lebr": 3080,
      "worry": 3081,
      "drink": 3082,
      "beauty": 3083,
      "waiting": 3084,
      "costs": 3085,
      "celebr": 3086,
      "strugg": 3087,
      "spirit": 3088,
      "afghan": 3089,
      "ten": 3090,
      "ver": 3091,
      "##itation": 3092,
      "forget": 3093,
      "fuel": 3094,
      "solutions": 3095,
      "governments": 3096,
      "enjoy": 3097,
      "##itude": 3098,
      "##iven": 3099,
      "unique": 3100,
      "##acity": 3101,
      "##epend": 3102,
      "controll": 3103,
      "direction": 3104,
      "practice": 3105,
      "##sc": 3106,
      "##sequ": 3107,
      "forth": 3108,
      "shark": 3109,
      "levels": 3110,
      "cry": 3111,
      "##ike": 3112,
      "##inating": 3113,
      "##enced": 3114,
      "humanity": 3115,
      "laws": 3116,
      "immediately": 3117,
      "tit": 3118,
      "##ef": 3119,
      "wealth": 3120,
      "##amic": 3121,
      "##pped": 3122,
      "surg": 3123,
      "surve": 3124,
      "website": 3125,
      "match": 3126,
      "##ndon": 3127,
      "##ceed": 3128,
      "engineering": 3129,
      "citizens": 3130,
      "nation": 3131,
      "river": 3132,
      "##ai": 3133,
      "##put": 3134,
      "lat": 3135,
      "##back": 3136,
      "##rest": 3137,
      "##aries": 3138,
      "##eless": 3139,
      "greatest": 3140,
      "teaching": 3141,
      "massive": 3142,
      "random": 3143,
      "300": 3144,
      "ben": 3145,
      "wood": 3146,
      "##aly": 3147,
      "weap": 3148,
      "minds": 3149,
      "walked": 3150,
      "values": 3151,
      "harv": 3152,
      "institutions": 3153,
      "services": 3154,
      "##atives": 3155,
      "plastic": 3156,
      "decade": 3157,
      "dollar": 3158,
      "raise": 3159,
      "optim": 3160,
      "john": 3161,
      "##imately": 3162,
      "##ables": 3163,
      "aid": 3164,
      "fit": 3165,
      "##uted": 3166,
      "condition": 3167,
      "babies": 3168,
      "multip": 3169,
      "german": 3170,
      "dar": 3171,
      "##iet": 3172,
      "##iding": 3173,
      "##resh": 3174,
      "meeting": 3175,
      "journal": 3176,
      "floor": 3177,
      "rule": 3178,
      "##cies": 3179,
      "##ays": 3180,
      "##ologist": 3181,
      "invented": 3182,
      "cultural": 3183,
      "various": 3184,
      "encou": 3185,
      "financial": 3186,
      "90": 3187,
      "##ee": 3188,
      "##atically": 3189,
      "select": 3190,
      "##istics": 3191,
      "prep": 3192,
      "simpl": 3193,
      "electron": 3194,
      "popular": 3195,
      "standard": 3196,
      "demon": 3197,
      "types": 3198,
      "ken": 3199,
      "##iation": 3200,
      "##oty": 3201,
      "##ches": 3202,
      "decades": 3203,
      "##rene": 3204,
      "physic": 3205,
      "ahead": 3206,
      "sorry": 3207,
      "hous": 3208,
      "effects": 3209,
      "method": 3210,
      "insect": 3211,
      "##sem": 3212,
      "following": 3213,
      "flying": 3214,
      "cust": 3215,
      "race": 3216,
      "ton": 3217,
      "##ises": 3218,
      "##itor": 3219,
      "##vert": 3220,
      "london": 3221,
      "speaking": 3222,
      "fold": 3223,
      "##airs": 3224,
      "radio": 3225,
      "##attle": 3226,
      "mountain": 3227,
      "depend": 3228,
      "base": 3229,
      "dyn": 3230,
      "apply": 3231,
      "instr": 3232,
      "connection": 3233,
      "oppos": 3234,
      "honest": 3235,
      "gradu": 3236,
      "neighborhood": 3237,
      "mut": 3238,
      "##ils": 3239,
      "commer": 3240,
      "decide": 3241,
      "relative": 3242,
      "career": 3243,
      "austr": 3244,
      "##rees": 3245,
      "express": 3246,
      "infrast": 3247,
      "politics": 3248,
      "infrastruct": 3249,
      "24": 3250,
      "nut": 3251,
      "useful": 3252,
      "pressure": 3253,
      "remarkable": 3254,
      "purpose": 3255,
      "##lly": 3256,
      "hair": 3257,
      "##antic": 3258,
      "uses": 3259,
      "mostly": 3260,
      "instance": 3261,
      "possibly": 3262,
      "terrible": 3263,
      "telev": 3264,
      "enormous": 3265,
      "stress": 3266,
      "choices": 3267,
      "integr": 3268,
      "microb": 3269,
      "##uct": 3270,
      "##ball": 3271,
      "##for": 3272,
      "agric": 3273,
      "##rupt": 3274,
      "offic": 3275,
      "hyd": 3276,
      "agricult": 3277,
      "mamm": 3278,
      "##bel": 3279,
      "##unk": 3280,
      "female": 3281,
      "male": 3282,
      "##ration": 3283,
      "boys": 3284,
      "capacity": 3285,
      "philos": 3286,
      "demonstr": 3287,
      "##ls": 3288,
      "independ": 3289,
      "scan": 3290,
      "challenges": 3291,
      "motiv": 3292,
      "##aign": 3293,
      "##50": 3294,
      "altern": 3295,
      "party": 3296,
      "197": 3297,
      "campaign": 3298,
      "mobile": 3299,
      "pig": 3300,
      "tens": 3301,
      "##iqu": 3302,
      "##ec": 3303,
      "##iles": 3304,
      "below": 3305,
      "societies": 3306,
      "slightly": 3307,
      "fat": 3308,
      "##yle": 3309,
      "poet": 3310,
      "speech": 3311,
      "blog": 3312,
      "understood": 3313,
      "creativity": 3314,
      "diseases": 3315,
      "ira": 3316,
      "tiss": 3317,
      "wide": 3318,
      "##ervation": 3319,
      "##orrow": 3320,
      "##key": 3321,
      "worst": 3322,
      "whose": 3323,
      "coast": 3324,
      "gene": 3325,
      "invent": 3326,
      "slide": 3327,
      "supply": 3328,
      "respond": 3329,
      "task": 3330,
      "arab": 3331,
      "##nel": 3332,
      "##ffe": 3333,
      "##iforn": 3334,
      "surround": 3335,
      "helped": 3336,
      "californ": 3337,
      "symbol": 3338,
      "summer": 3339,
      "religion": 3340,
      "doub": 3341,
      "television": 3342,
      "bang": 3343,
      "gather": 3344,
      "hus": 3345,
      "##ancy": 3346,
      "prevent": 3347,
      "indian": 3348,
      "swim": 3349,
      "switch": 3350,
      "paid": 3351,
      "##reprene": 3352,
      "ut": 3353,
      "##itted": 3354,
      "artist": 3355,
      "entreprene": 3356,
      "shared": 3357,
      "democr": 3358,
      "destro": 3359,
      "dav": 3360,
      "je": 3361,
      "pet": 3362,
      "tal": 3363,
      "knowing": 3364,
      "resist": 3365,
      "directly": 3366,
      "efficient": 3367,
      "colleagues": 3368,
      "temperature": 3369,
      "island": 3370,
      "belief": 3371,
      "hole": 3372,
      "total": 3373,
      "tor": 3374,
      "forces": 3375,
      "ord": 3376,
      "manu": 3377,
      "196": 3378,
      "tremend": 3379,
      "relationships": 3380,
      "survive": 3381,
      "##board": 3382,
      "sustainable": 3383,
      "infrastructure": 3384,
      "california": 3385,
      "##wise": 3386,
      "##oper": 3387,
      "consequ": 3388,
      "spaces": 3389,
      "oxygen": 3390,
      "70": 3391,
      "##iers": 3392,
      "crow": 3393,
      "musl": 3394,
      "answers": 3395,
      "programs": 3396,
      "yellow": 3397,
      "mr": 3398,
      "##ked": 3399,
      "biological": 3400,
      "published": 3401,
      "bul": 3402,
      "rh": 3403,
      "beat": 3404,
      "hack": 3405,
      "washing": 3406,
      "heat": 3407,
      "##ander": 3408,
      "twice": 3409,
      "differences": 3410,
      "meters": 3411,
      "funny": 3412,
      "legal": 3413,
      "birds": 3414,
      "manufact": 3415,
      "dance": 3416,
      "eating": 3417,
      "frame": 3418,
      "appl": 3419,
      "organizations": 3420,
      "markets": 3421,
      "causes": 3422,
      "cru": 3423,
      "loss": 3424,
      "wire": 3425,
      "##anc": 3426,
      "conference": 3427,
      "expand": 3428,
      "explore": 3429,
      "profound": 3430,
      "despite": 3431,
      "surgery": 3432,
      "##bb": 3433,
      "##wood": 3434,
      "noticed": 3435,
      "##anda": 3436,
      "genome": 3437,
      "related": 3438,
      "produced": 3439,
      "networks": 3440,
      "afghanistan": 3441,
      "iraq": 3442,
      "##anced": 3443,
      "##arian": 3444,
      "shock": 3445,
      "frank": 3446,
      "active": 3447,
      "evolved": 3448,
      "highly": 3449,
      "histor": 3450,
      "atmosphere": 3451,
      "##ios": 3452,
      "##olve": 3453,
      "workers": 3454,
      "##izes": 3455,
      "tax": 3456,
      "desert": 3457,
      "##cules": 3458,
      "closer": 3459,
      "custom": 3460,
      "##iot": 3461,
      "##raid": 3462,
      "streets": 3463,
      "original": 3464,
      "copy": 3465,
      "responsibility": 3466,
      "iran": 3467,
      "trouble": 3468,
      "eg": 3469,
      "mich": 3470,
      "##iest": 3471,
      "##gu": 3472,
      "##inate": 3473,
      "##ement": 3474,
      "cooper": 3475,
      "afraid": 3476,
      "##rench": 3477,
      "played": 3478,
      "stopped": 3479,
      "##like": 3480,
      "##load": 3481,
      "bought": 3482,
      "russ": 3483,
      "##uing": 3484,
      "displ": 3485,
      "smell": 3486,
      "applic": 3487,
      "designers": 3488,
      "corner": 3489,
      "bomb": 3490,
      "fash": 3491,
      "mix": 3492,
      "rough": 3493,
      "tum": 3494,
      "##cks": 3495,
      "gotten": 3496,
      "communicate": 3497,
      "shoot": 3498,
      "bord": 3499,
      "fro": 3500,
      "roo": 3501,
      "sick": 3502,
      "vul": 3503,
      "moon": 3504,
      "trib": 3505,
      "compon": 3506,
      "flight": 3507,
      "missing": 3508,
      "communication": 3509,
      "emotional": 3510,
      "surprising": 3511,
      "volun": 3512,
      "dying": 3513,
      "##aling": 3514,
      "seemed": 3515,
      "##osy": 3516,
      "plat": 3517,
      "experiments": 3518,
      "hang": 3519,
      "stem": 3520,
      "seas": 3521,
      "##rael": 3522,
      "##erson": 3523,
      "feels": 3524,
      "photo": 3525,
      "mission": 3526,
      "nearly": 3527,
      "ju": 3528,
      "lack": 3529,
      "vast": 3530,
      "israel": 3531,
      "trip": 3532,
      "amb": 3533,
      "##iber": 3534,
      "easily": 3535,
      "molecules": 3536,
      "reduce": 3537,
      "target": 3538,
      "rapid": 3539,
      "core": 3540,
      "##ened": 3541,
      "##esis": 3542,
      "##icles": 3543,
      "sharing": 3544,
      "##atell": 3545,
      "teen": 3546,
      "##aining": 3547,
      "brill": 3548,
      "##ception": 3549,
      "engineer": 3550,
      "window": 3551,
      "demand": 3552,
      "dinos": 3553,
      "consciousness": 3554,
      "austral": 3555,
      "mou": 3556,
      "mad": 3557,
      "ske": 3558,
      "##band": 3559,
      "##orith": 3560,
      "habit": 3561,
      "members": 3562,
      "classroom": 3563,
      "magaz": 3564,
      "degrees": 3565,
      "algorith": 3566,
      "nations": 3567,
      "##here": 3568,
      "##zil": 3569,
      "##itter": 3570,
      "weird": 3571,
      "intel": 3572,
      "differently": 3573,
      "basis": 3574,
      "helping": 3575,
      "planets": 3576,
      "metap": 3577,
      "scientist": 3578,
      "experiences": 3579,
      "daughter": 3580,
      "crowd": 3581,
      "fashion": 3582,
      "diversity": 3583,
      "rom": 3584,
      "rare": 3585,
      "satell": 3586,
      "##rew": 3587,
      "inj": 3588,
      "##leg": 3589,
      "##aced": 3590,
      "dram": 3591,
      "creates": 3592,
      "attract": 3593,
      "brazil": 3594,
      "significant": 3595,
      "climb": 3596,
      "gh": 3597,
      "shift": 3598,
      "mexic": 3599,
      "parad": 3600,
      "broken": 3601,
      "complexity": 3602,
      "correct": 3603,
      "gard": 3604,
      "##aff": 3605,
      "ancient": 3606,
      "bringing": 3607,
      "edge": 3608,
      "etc": 3609,
      "wis": 3610,
      "##icking": 3611,
      "bees": 3612,
      "##used": 3613,
      "##empt": 3614,
      "accord": 3615,
      "airpl": 3616,
      "david": 3617,
      "vulner": 3618,
      "gent": 3619,
      "##ste": 3620,
      "org": 3621,
      "##istry": 3622,
      "background": 3623,
      "spending": 3624,
      "flag": 3625,
      "visit": 3626,
      "hyp": 3627,
      "focused": 3628,
      "inspir": 3629,
      "aids": 3630,
      "##uc": 3631,
      "##water": 3632,
      "contact": 3633,
      "lights": 3634,
      "addition": 3635,
      "breast": 3636,
      "photos": 3637,
      "hearing": 3638,
      "ble": 3639,
      "##arm": 3640,
      "stren": 3641,
      "shel": 3642,
      "agree": 3643,
      "acad": 3644,
      "studying": 3645,
      "facebook": 3646,
      "foreign": 3647,
      "devices": 3648,
      "inspired": 3649,
      "analy": 3650,
      "commercial": 3651,
      "##tle": 3652,
      "coffe": 3653,
      "foundation": 3654,
      "joy": 3655,
      "join": 3656,
      "professor": 3657,
      "religious": 3658,
      "landscape": 3659,
      "400": 3660,
      "gun": 3661,
      "mort": 3662,
      "master": 3663,
      "##cell": 3664,
      "poem": 3665,
      "brother": 3666,
      "bridge": 3667,
      "opportunities": 3668,
      "identity": 3669,
      "tremendous": 3670,
      "##osystem": 3671,
      "giant": 3672,
      "iron": 3673,
      "mas": 3674,
      "##win": 3675,
      "##arter": 3676,
      "shop": 3677,
      "boat": 3678,
      "imagination": 3679,
      "depart": 3680,
      "strength": 3681,
      "batter": 3682,
      "rout": 3683,
      "##rogen": 3684,
      "forever": 3685,
      "harm": 3686,
      "sexual": 3687,
      "ecosystem": 3688,
      "ax": 3689,
      "bread": 3690,
      "cred": 3691,
      "mos": 3692,
      "tail": 3693,
      "artists": 3694,
      "ultimately": 3695,
      "held": 3696,
      "unlike": 3697,
      "corpor": 3698,
      "fully": 3699,
      "pleas": 3700,
      "fairly": 3701,
      "virtual": 3702,
      "band": 3703,
      "cogn": 3704,
      "fed": 3705,
      "forg": 3706,
      "passed": 3707,
      "coffee": 3708,
      "ren": 3709,
      "##vit": 3710,
      "therap": 3711,
      "chick": 3712,
      "partners": 3713,
      "cheap": 3714,
      "farmers": 3715,
      "lucky": 3716,
      "##ica": 3717,
      "note": 3718,
      "prev": 3719,
      "cla": 3720,
      "scul": 3721,
      "smo": 3722,
      "failure": 3723,
      "wheel": 3724,
      "fol": 3725,
      "##of": 3726,
      "recover": 3727,
      "que": 3728,
      "##bert": 3729,
      "ship": 3730,
      "exer": 3731,
      "appre": 3732,
      "invis": 3733,
      "turning": 3734,
      "distance": 3735,
      "brand": 3736,
      "degree": 3737,
      "definition": 3738,
      "brilliant": 3739,
      "lin": 3740,
      "aspect": 3741,
      "events": 3742,
      "creatures": 3743,
      "raised": 3744,
      "european": 3745,
      "argument": 3746,
      "dreams": 3747,
      "vacc": 3748,
      "phenomenon": 3749,
      "opposite": 3750,
      "mouth": 3751,
      "gar": 3752,
      "mouse": 3753,
      "##ius": 3754,
      "##erly": 3755,
      "sport": 3756,
      "disord": 3757,
      "traffic": 3758,
      "particles": 3759,
      "possibility": 3760,
      "host": 3761,
      "accom": 3762,
      "describe": 3763,
      "negative": 3764,
      "gentle": 3765,
      "repe": 3766,
      "##ruption": 3767,
      "##ees": 3768,
      "##ifying": 3769,
      "otherwise": 3770,
      "importantly": 3771,
      "moments": 3772,
      "easier": 3773,
      "advant": 3774,
      "avoid": 3775,
      "depression": 3776,
      "motor": 3777,
      "leadership": 3778,
      "bound": 3779,
      "egg": 3780,
      "niger": 3781,
      "##cest": 3782,
      "##ding": 3783,
      "##atures": 3784,
      "reb": 3785,
      "##ada": 3786,
      "notion": 3787,
      "click": 3788,
      "##itely": 3789,
      "leads": 3790,
      "discovery": 3791,
      "figured": 3792,
      "entirely": 3793,
      "structures": 3794,
      "odd": 3795,
      "according": 3796,
      "sculpt": 3797,
      "appreci": 3798,
      "jew": 3799,
      "##house": 3800,
      "##gar": 3801,
      "##zen": 3802,
      "##orge": 3803,
      "justice": 3804,
      "remote": 3805,
      "##ification": 3806,
      "billions": 3807,
      "suffering": 3808,
      "ath": 3809,
      "fif": 3810,
      "french": 3811,
      "regular": 3812,
      "benefits": 3813,
      "philosoph": 3814,
      "mit": 3815,
      "ancest": 3816,
      "##roud": 3817,
      "elements": 3818,
      "lunch": 3819,
      "seed": 3820,
      "asia": 3821,
      "##ulations": 3822,
      "concent": 3823,
      "previous": 3824,
      "calls": 3825,
      "adapt": 3826,
      "grass": 3827,
      "brings": 3828,
      "holding": 3829,
      "##ipped": 3830,
      "responsible": 3831,
      "horr": 3832,
      "double": 3833,
      "epid": 3834,
      "fab": 3835,
      "mig": 3836,
      "tast": 3837,
      "ug": 3838,
      "##cles": 3839,
      "##ening": 3840,
      "clock": 3841,
      "disc": 3842,
      "shouldn": 3843,
      "charge": 3844,
      "stream": 3845,
      "oceans": 3846,
      "frequ": 3847,
      "summ": 3848,
      "necessarily": 3849,
      "puzz": 3850,
      "counter": 3851,
      "cand": 3852,
      "##pher": 3853,
      "##ky": 3854,
      "noise": 3855,
      "studied": 3856,
      "attempt": 3857,
      "accur": 3858,
      "restaur": 3859,
      "##ography": 3860,
      "grandm": 3861,
      "emotion": 3862,
      "require": 3863,
      "competition": 3864,
      "dimensional": 3865,
      "intellect": 3866,
      "tour": 3867,
      "tough": 3868,
      "##ya": 3869,
      "##vity": 3870,
      "quote": 3871,
      "prize": 3872,
      "prior": 3873,
      "letter": 3874,
      "bright": 3875,
      "fourth": 3876,
      "institution": 3877,
      "tissue": 3878,
      "husband": 3879,
      "proud": 3880,
      "##ypt": 3881,
      "assem": 3882,
      "helps": 3883,
      "opened": 3884,
      "leading": 3885,
      "matters": 3886,
      "balance": 3887,
      "adults": 3888,
      "pounds": 3889,
      "##right": 3890,
      "tow": 3891,
      "ange": 3892,
      "libr": 3893,
      "sector": 3894,
      "alt": 3895,
      "spot": 3896,
      "saf": 3897,
      "trained": 3898,
      "faith": 3899,
      "quantum": 3900,
      "weapons": 3901,
      "insects": 3902,
      "rot": 3903,
      "ham": 3904,
      "##celer": 3905,
      "chur": 3906,
      "##ulated": 3907,
      "##ifically": 3908,
      "talks": 3909,
      "indic": 3910,
      "creation": 3911,
      "snow": 3912,
      "necessary": 3913,
      "egypt": 3914,
      "##stein": 3915,
      "diver": 3916,
      "foss": 3917,
      "pun": 3918,
      "##idents": 3919,
      "##verse": 3920,
      "##ami": 3921,
      "##roc": 3922,
      "##ulous": 3923,
      "exch": 3924,
      "##ibilities": 3925,
      "##ysis": 3926,
      "childhood": 3927,
      "subst": 3928,
      "investment": 3929,
      "failed": 3930,
      "typical": 3931,
      "document": 3932,
      "platform": 3933,
      "##ears": 3934,
      "maint": 3935,
      "##pper": 3936,
      "truck": 3937,
      "interp": 3938,
      "lock": 3939,
      "believed": 3940,
      "stuck": 3941,
      "hopefully": 3942,
      "professional": 3943,
      "slowly": 3944,
      "volunte": 3945,
      "hid": 3946,
      "nan": 3947,
      "##eared": 3948,
      "compared": 3949,
      "##ager": 3950,
      "disp": 3951,
      "explor": 3952,
      "eleph": 3953,
      "convin": 3954,
      "synth": 3955,
      "finger": 3956,
      "destroy": 3957,
      "magazine": 3958,
      "metaphor": 3959,
      "invisible": 3960,
      "##ront": 3961,
      "##vant": 3962,
      "weak": 3963,
      "whenever": 3964,
      "acceler": 3965,
      "colors": 3966,
      "signal": 3967,
      "succeed": 3968,
      "newsp": 3969,
      "150": 3970,
      "caught": 3971,
      "embra": 3972,
      "fighting": 3973,
      "currently": 3974,
      "leaving": 3975,
      "exhib": 3976,
      "bag": 3977,
      "hate": 3978,
      "lapt": 3979,
      "sister": 3980,
      "##mark": 3981,
      "shr": 3982,
      "franc": 3983,
      "unless": 3984,
      "##iable": 3985,
      "crash": 3986,
      "profit": 3987,
      "majority": 3988,
      "concerned": 3989,
      "mer": 3990,
      "##ctions": 3991,
      "ants": 3992,
      "compare": 3993,
      "novel": 3994,
      "##connect": 3995,
      "coral": 3996,
      "yester": 3997,
      "politic": 3998,
      "construct": 3999,
      "element": 4000,
      "##ometers": 4001,
      "chap": 4002,
      "chair": 4003,
      "lesson": 4004,
      "##ographic": 4005,
      "collective": 4006,
      "benefit": 4007,
      "sequence": 4008,
      "influence": 4009,
      "cos": 4010,
      "fresh": 4011,
      "gall": 4012,
      "len": 4013,
      "names": 4014,
      "round": 4015,
      "##ino": 4016,
      "reve": 4017,
      "station": 4018,
      "##amb": 4019,
      "moves": 4020,
      "##agers": 4021,
      "finished": 4022,
      "organisms": 4023,
      "paint": 4024,
      "deeply": 4025,
      "engineers": 4026,
      "diagn": 4027,
      "mathematics": 4028,
      "era": 4029,
      "defe": 4030,
      "teles": 4031,
      "##ogen": 4032,
      "closed": 4033,
      "adop": 4034,
      "install": 4035,
      "marri": 4036,
      "##print": 4037,
      "constantly": 4038,
      "normally": 4039,
      "circle": 4040,
      "operating": 4041,
      "consumption": 4042,
      "protein": 4043,
      "yesterday": 4044,
      "telesc": 4045,
      "purs": 4046,
      "wow": 4047,
      "##xies": 4048,
      "managed": 4049,
      "factory": 4050,
      "attach": 4051,
      "capable": 4052,
      "begins": 4053,
      "prototy": 4054,
      "paying": 4055,
      "emotions": 4056,
      "fortun": 4057,
      "fascinating": 4058,
      "cognitive": 4059,
      "bone": 4060,
      "faces": 4061,
      "stim": 4062,
      "##throp": 4063,
      "meat": 4064,
      "grade": 4065,
      "driven": 4066,
      "opin": 4067,
      "transm": 4068,
      "insight": 4069,
      "equal": 4070,
      "##ropri": 4071,
      "interaction": 4072,
      "argue": 4073,
      "walls": 4074,
      "british": 4075,
      "galaxy": 4076,
      "##bur": 4077,
      "##pid": 4078,
      "reward": 4079,
      "##enty": 4080,
      "accident": 4081,
      "equival": 4082,
      "surprise": 4083,
      "described": 4084,
      "soldiers": 4085,
      "separate": 4086,
      "strategy": 4087,
      "bon": 4088,
      "due": 4089,
      "dial": 4090,
      "weather": 4091,
      "seat": 4092,
      "##ortex": 4093,
      "fellow": 4094,
      "phones": 4095,
      "grown": 4096,
      "empt": 4097,
      "##athy": 4098,
      "artific": 4099,
      "##ipping": 4100,
      "empower": 4101,
      "##ij": 4102,
      "##lin": 4103,
      "##esth": 4104,
      "##lex": 4105,
      "bear": 4106,
      "##irt": 4107,
      "##essed": 4108,
      "coal": 4109,
      "heads": 4110,
      "infin": 4111,
      "investig": 4112,
      "perfectly": 4113,
      "seriously": 4114,
      "principles": 4115,
      "galaxies": 4116,
      "agriculture": 4117,
      "church": 4118,
      "categ": 4119,
      "dry": 4120,
      "mur": 4121,
      "row": 4122,
      "##omy": 4123,
      "wear": 4124,
      "##oted": 4125,
      "mel": 4126,
      "##uls": 4127,
      "##pping": 4128,
      "precise": 4129,
      "apple": 4130,
      "subm": 4131,
      "followed": 4132,
      "civilization": 4133,
      "breath": 4134,
      "roof": 4135,
      "advantage": 4136,
      "wave": 4137,
      "##care": 4138,
      "##yl": 4139,
      "whom": 4140,
      "##urally": 4141,
      "##ume": 4142,
      "##iff": 4143,
      "hasn": 4144,
      "leader": 4145,
      "businesses": 4146,
      "paul": 4147,
      "battle": 4148,
      "mothers": 4149,
      "##inist": 4150,
      "##edia": 4151,
      "wearing": 4152,
      "soil": 4153,
      "##uries": 4154,
      "dol": 4155,
      "spring": 4156,
      "surge": 4157,
      "diet": 4158,
      "symmet": 4159,
      "limited": 4160,
      "cycle": 4161,
      "origin": 4162,
      "homes": 4163,
      "##uge": 4164,
      "##gment": 4165,
      "##fl": 4166,
      "##encies": 4167,
      "##anes": 4168,
      "incent": 4169,
      "reef": 4170,
      "##entally": 4171,
      "##apers": 4172,
      "brief": 4173,
      "feedback": 4174,
      "surprised": 4175,
      "replace": 4176,
      "mentioned": 4177,
      "mexico": 4178,
      "##asion": 4179,
      "reform": 4180,
      "stock": 4181,
      "unp": 4182,
      "everyday": 4183,
      "fell": 4184,
      "twitter": 4185,
      "desire": 4186,
      "planning": 4187,
      "languages": 4188,
      "equip": 4189,
      "astron": 4190,
      "wisdom": 4191,
      "gap": 4192,
      "tap": 4193,
      "##eral": 4194,
      "##reg": 4195,
      "worried": 4196,
      "##illed": 4197,
      "prost": 4198,
      "intu": 4199,
      "blow": 4200,
      "harder": 4201,
      "treated": 4202,
      "intelligent": 4203,
      "vehicle": 4204,
      "darwin": 4205,
      "australia": 4206,
      "department": 4207,
      "cosm": 4208,
      "equivalent": 4209,
      "ray": 4210,
      "sau": 4211,
      "##iors": 4212,
      "##har": 4213,
      "##hab": 4214,
      "beach": 4215,
      "soph": 4216,
      "compl": 4217,
      "agre": 4218,
      "amp": 4219,
      "load": 4220,
      "contract": 4221,
      "designer": 4222,
      "england": 4223,
      "##grad": 4224,
      "economics": 4225,
      "organic": 4226,
      "institute": 4227,
      "received": 4228,
      "tomorrow": 4229,
      "increasingly": 4230,
      "poetry": 4231,
      "washington": 4232,
      "francis": 4233,
      "35": 4234,
      "nerv": 4235,
      "goals": 4236,
      "pros": 4237,
      "spl": 4238,
      "colon": 4239,
      "belong": 4240,
      "20th": 4241,
      "valley": 4242,
      "married": 4243,
      "review": 4244,
      "universal": 4245,
      "motion": 4246,
      "fields": 4247,
      "layer": 4248,
      "lady": 4249,
      "announ": 4250,
      "alternative": 4251,
      "il": 4252,
      "##com": 4253,
      "shad": 4254,
      "##apse": 4255,
      "prefer": 4256,
      "arms": 4257,
      "invited": 4258,
      "gender": 4259,
      "versus": 4260,
      "debate": 4261,
      "date": 4262,
      "rat": 4263,
      "##rict": 4264,
      "theater": 4265,
      "##ston": 4266,
      "shut": 4267,
      "peak": 4268,
      "##cket": 4269,
      "mak": 4270,
      "##emy": 4271,
      "implic": 4272,
      "player": 4273,
      "researchers": 4274,
      "watched": 4275,
      "anti": 4276,
      "richard": 4277,
      "survival": 4278,
      "replic": 4279,
      "daily": 4280,
      "management": 4281,
      "launched": 4282,
      "molecule": 4283,
      "ordinary": 4284,
      "folks": 4285,
      "safety": 4286,
      "hidden": 4287,
      "kick": 4288,
      "mat": 4289,
      "pages": 4290,
      "##ta": 4291,
      "##cil": 4292,
      "##aria": 4293,
      "highest": 4294,
      "##issions": 4295,
      "curious": 4296,
      "drawing": 4297,
      "associated": 4298,
      "independent": 4299,
      "equipment": 4300,
      "fal": 4301,
      "fis": 4302,
      "pac": 4303,
      "rural": 4304,
      "tick": 4305,
      "##la": 4306,
      "##asa": 4307,
      "exists": 4308,
      "users": 4309,
      "##ensity": 4310,
      "commit": 4311,
      "flat": 4312,
      "warm": 4313,
      "stupid": 4314,
      "testing": 4315,
      "statistics": 4316,
      "dinner": 4317,
      "multiple": 4318,
      "bow": 4319,
      "vent": 4320,
      "##iat": 4321,
      "##tain": 4322,
      "##bble": 4323,
      "##icity": 4324,
      "rein": 4325,
      "refer": 4326,
      "veget": 4327,
      "partner": 4328,
      "puts": 4329,
      "players": 4330,
      "steps": 4331,
      "neuros": 4332,
      "##roph": 4333,
      "sentence": 4334,
      "principle": 4335,
      "distribution": 4336,
      "lu": 4337,
      "mile": 4338,
      "pil": 4339,
      "rub": 4340,
      "##ok": 4341,
      "##hold": 4342,
      "toward": 4343,
      "##otic": 4344,
      "myth": 4345,
      "thinks": 4346,
      "quiet": 4347,
      "expression": 4348,
      "brown": 4349,
      "technical": 4350,
      "crime": 4351,
      "identify": 4352,
      "resource": 4353,
      "filled": 4354,
      "shapes": 4355,
      "germany": 4356,
      "nervous": 4357,
      "99": 4358,
      "sen": 4359,
      "##wide": 4360,
      "chimp": 4361,
      "plus": 4362,
      "co2": 4363,
      "existence": 4364,
      "kilometers": 4365,
      "property": 4366,
      "dolph": 4367,
      "ein": 4368,
      "gay": 4369,
      "grain": 4370,
      "tall": 4371,
      "##ae": 4372,
      "##rate": 4373,
      "##yth": 4374,
      "chain": 4375,
      "scen": 4376,
      "##elling": 4377,
      "driver": 4378,
      "plane": 4379,
      "article": 4380,
      "organized": 4381,
      "signals": 4382,
      "illness": 4383,
      "caused": 4384,
      "awful": 4385,
      "leaves": 4386,
      "heavy": 4387,
      "struggle": 4388,
      "democratic": 4389,
      "intellectual": 4390,
      "cow": 4391,
      "mart": 4392,
      "ves": 4393,
      "zo": 4394,
      "##word": 4395,
      "abst": 4396,
      "##ushing": 4397,
      "##ago": 4398,
      "transition": 4399,
      "explan": 4400,
      "suppose": 4401,
      "opening": 4402,
      "processes": 4403,
      "sites": 4404,
      "conduct": 4405,
      "lifet": 4406,
      "japanese": 4407,
      "airplane": 4408,
      "gang": 4409,
      "pip": 4410,
      "##ax": 4411,
      "##estic": 4412,
      "maps": 4413,
      "spr": 4414,
      "saved": 4415,
      "pray": 4416,
      "##forest": 4417,
      "warming": 4418,
      "generations": 4419,
      "corruption": 4420,
      "setting": 4421,
      "covered": 4422,
      "losing": 4423,
      "hurt": 4424,
      "comfortable": 4425,
      "artificial": 4426,
      "##af": 4427,
      "toile": 4428,
      "##enn": 4429,
      "stood": 4430,
      "##anted": 4431,
      "frustr": 4432,
      "congress": 4433,
      "ali": 4434,
      "spoke": 4435,
      "cloth": 4436,
      "importance": 4437,
      "designing": 4438,
      "arts": 4439,
      "valu": 4440,
      "wondering": 4441,
      "##ocol": 4442,
      "dealing": 4443,
      "antib": 4444,
      "cutting": 4445,
      "shoes": 4446,
      "circum": 4447,
      "clinical": 4448,
      "electrical": 4449,
      "##rie": 4450,
      "##pet": 4451,
      "inner": 4452,
      "lie": 4453,
      "evil": 4454,
      "prime": 4455,
      "interface": 4456,
      "resc": 4457,
      "facts": 4458,
      "crim": 4459,
      "refuge": 4460,
      "##craft": 4461,
      "dimensions": 4462,
      "grandmother": 4463,
      "marriage": 4464,
      "hide": 4465,
      "kore": 4466,
      "nar": 4467,
      "tons": 4468,
      "##aled": 4469,
      "forced": 4470,
      "##olves": 4471,
      "shif": 4472,
      "hadn": 4473,
      "whereas": 4474,
      "calling": 4475,
      "letters": 4476,
      "scene": 4477,
      "appropri": 4478,
      "advanced": 4479,
      "picked": 4480,
      "essential": 4481,
      "analysis": 4482,
      "mountains": 4483,
      "concl": 4484,
      "experienced": 4485,
      "negot": 4486,
      "britain": 4487,
      "kenya": 4488,
      "consequences": 4489,
      "fossil": 4490,
      "einstein": 4491,
      "vessel": 4492,
      "45": 4493,
      "jan": 4494,
      "mc": 4495,
      "voices": 4496,
      "##aurs": 4497,
      "##cast": 4498,
      "recon": 4499,
      "height": 4500,
      "surf": 4501,
      "bits": 4502,
      "solid": 4503,
      "finish": 4504,
      "bush": 4505,
      "specifically": 4506,
      "signs": 4507,
      "wake": 4508,
      "continu": 4509,
      "killing": 4510,
      "limit": 4511,
      "movies": 4512,
      "21st": 4513,
      "##head": 4514,
      "##rum": 4515,
      "##erves": 4516,
      "bee": 4517,
      "liked": 4518,
      "qual": 4519,
      "advert": 4520,
      "##place": 4521,
      "##aked": 4522,
      "continent": 4523,
      "northern": 4524,
      "pengu": 4525,
      "arrived": 4526,
      "damage": 4527,
      "microbes": 4528,
      "garden": 4529,
      "credit": 4530,
      "convinced": 4531,
      "pak": 4532,
      "van": 4533,
      "lies": 4534,
      "atl": 4535,
      "manip": 4536,
      "minister": 4537,
      "recy": 4538,
      "healthcare": 4539,
      "connections": 4540,
      "encoun": 4541,
      "considered": 4542,
      "army": 4543,
      "estab": 4544,
      "entrepreneurs": 4545,
      "satellite": 4546,
      "battery": 4547,
      "pakistan": 4548,
      "dots": 4549,
      "gree": 4550,
      "vote": 4551,
      "wars": 4552,
      "##zing": 4553,
      "stone": 4554,
      "lift": 4555,
      "sending": 4556,
      "##ession": 4557,
      "##cipl": 4558,
      "unit": 4559,
      "muscle": 4560,
      "keeping": 4561,
      "collection": 4562,
      "chemistry": 4563,
      "trials": 4564,
      "experts": 4565,
      "holes": 4566,
      "##mas": 4567,
      "##dy": 4568,
      "##icy": 4569,
      "asp": 4570,
      "extend": 4571,
      "underne": 4572,
      "feelings": 4573,
      "producing": 4574,
      "possibilities": 4575,
      "waves": 4576,
      "drag": 4577,
      "deeper": 4578,
      "construction": 4579,
      "consumer": 4580,
      "variety": 4581,
      "budget": 4582,
      "dinosaurs": 4583,
      "exercise": 4584,
      "exchange": 4585,
      "empty": 4586,
      "underneath": 4587,
      "gal": 4588,
      "lic": 4589,
      "nav": 4590,
      "##iency": 4591,
      "##hi": 4592,
      "##cers": 4593,
      "toy": 4594,
      "##anze": 4595,
      "##itness": 4596,
      "myst": 4597,
      "perce": 4598,
      "##acle": 4599,
      "consist": 4600,
      "##gged": 4601,
      "auth": 4602,
      "member": 4603,
      "broke": 4604,
      "illustr": 4605,
      "convention": 4606,
      "reaction": 4607,
      "chemicals": 4608,
      "illeg": 4609,
      "chimpanze": 4610,
      "wik": 4611,
      "##ov": 4612,
      "##do": 4613,
      "##abet": 4614,
      "messages": 4615,
      "expected": 4616,
      "sources": 4617,
      "status": 4618,
      "hung": 4619,
      "dynamic": 4620,
      "roughly": 4621,
      "ends": 4622,
      "ped": 4623,
      "##mber": 4624,
      "##zed": 4625,
      "##ams": 4626,
      "##tered": 4627,
      "shall": 4628,
      "##unt": 4629,
      "ideal": 4630,
      "swed": 4631,
      "videos": 4632,
      "steel": 4633,
      "cartoon": 4634,
      "sharks": 4635,
      "harvard": 4636,
      "tumor": 4637,
      "3d": 4638,
      "cast": 4639,
      "dip": 4640,
      "jack": 4641,
      "rates": 4642,
      "##stream": 4643,
      "##ett": 4644,
      "user": 4645,
      "##odes": 4646,
      "auton": 4647,
      "lawy": 4648,
      "honor": 4649,
      "selling": 4650,
      "graduate": 4651,
      "relatively": 4652,
      "length": 4653,
      "pow": 4654,
      "pure": 4655,
      "und": 4656,
      "##fish": 4657,
      "##rete": 4658,
      "##encing": 4659,
      "##edic": 4660,
      "wel": 4661,
      "isol": 4662,
      "##ulating": 4663,
      "##ests": 4664,
      "intr": 4665,
      "sugar": 4666,
      "##acters": 4667,
      "desk": 4668,
      "thoughts": 4669,
      "characters": 4670,
      "location": 4671,
      "george": 4672,
      "requires": 4673,
      "horse": 4674,
      "facing": 4675,
      "emerging": 4676,
      "malaria": 4677,
      "islam": 4678,
      "gain": 4679,
      "gift": 4680,
      "kitch": 4681,
      "ride": 4682,
      "wat": 4683,
      "spin": 4684,
      "##ension": 4685,
      "extract": 4686,
      "generally": 4687,
      "cultures": 4688,
      "microsc": 4689,
      "capture": 4690,
      "terrorism": 4691,
      "chicken": 4692,
      "assemb": 4693,
      "sophistic": 4694,
      "valuable": 4695,
      "sight": 4696,
      "##port": 4697,
      "##lement": 4698,
      "liqu": 4699,
      "prove": 4700,
      "teeth": 4701,
      "club": 4702,
      "bubble": 4703,
      "fewer": 4704,
      "carefully": 4705,
      "movements": 4706,
      "effectively": 4707,
      "radical": 4708,
      "typically": 4709,
      "privile": 4710,
      "carrying": 4711,
      "disappear": 4712,
      "molecular": 4713,
      "controlled": 4714,
      "encourage": 4715,
      "houses": 4716,
      "rapidly": 4717,
      "claim": 4718,
      "bare": 4719,
      "ru": 4720,
      "vert": 4721,
      "exec": 4722,
      "worldwide": 4723,
      "flies": 4724,
      "smile": 4725,
      "195": 4726,
      "gravity": 4727,
      "generate": 4728,
      "propos": 4729,
      "sympt": 4730,
      "represents": 4731,
      "transformation": 4732,
      "convince": 4733,
      "flex": 4734,
      "properties": 4735,
      "official": 4736,
      "##iques": 4737,
      "epidemic": 4738,
      "library": 4739,
      "cub": 4740,
      "cards": 4741,
      "gd": 4742,
      "les": 4743,
      "lect": 4744,
      "nur": 4745,
      "pian": 4746,
      "vib": 4747,
      "##ael": 4748,
      "reven": 4749,
      "canada": 4750,
      "suit": 4751,
      "diss": 4752,
      "bran": 4753,
      "decl": 4754,
      "regard": 4755,
      "password": 4756,
      "behaviors": 4757,
      "bottle": 4758,
      "winter": 4759,
      "cameras": 4760,
      "release": 4761,
      "primary": 4762,
      "viruses": 4763,
      "mathematical": 4764,
      "victims": 4765,
      "survey": 4766,
      "##force": 4767,
      "display": 4768,
      "vulnerable": 4769,
      "politicians": 4770,
      "poo": 4771,
      "ring": 4772,
      "##gets": 4773,
      "##kn": 4774,
      "ing": 4775,
      "##rove": 4776,
      "sem": 4777,
      "chic": 4778,
      "chart": 4779,
      "trillion": 4780,
      "spo": 4781,
      "##iev": 4782,
      "##acing": 4783,
      "contain": 4784,
      "acqu": 4785,
      "grid": 4786,
      "added": 4787,
      "define": 4788,
      "southern": 4789,
      "protection": 4790,
      "occup": 4791,
      "situations": 4792,
      "##onym": 4793,
      "details": 4794,
      "hydrogen": 4795,
      "mortality": 4796,
      "nigeria": 4797,
      "francisco": 4798,
      "lifetime": 4799,
      "gdp": 4800,
      "eld": 4801,
      "witness": 4802,
      "thin": 4803,
      "mand": 4804,
      "aging": 4805,
      "aff": 4806,
      "emissions": 4807,
      "conservation": 4808,
      "march": 4809,
      "assist": 4810,
      "assign": 4811,
      "##pected": 4812,
      "depends": 4813,
      "definitely": 4814,
      "##point": 4815,
      "instrument": 4816,
      "muslim": 4817,
      "rhyth": 4818,
      "season": 4819,
      ".'": 4820,
      "600": 4821,
      "bath": 4822,
      "##uary": 4823,
      "##nded": 4824,
      "##irty": 4825,
      "##osis": 4826,
      "dish": 4827,
      "command": 4828,
      "factor": 4829,
      "studio": 4830,
      "interests": 4831,
      "risks": 4832,
      "promise": 4833,
      "domin": 4834,
      "hypoth": 4835,
      "chicago": 4836,
      "cure": 4837,
      "gut": 4838,
      "james": 4839,
      "rit": 4840,
      "##oes": 4841,
      "##bors": 4842,
      "##ym": 4843,
      "##pan": 4844,
      "##ka": 4845,
      "toxic": 4846,
      "##ald": 4847,
      "##iti": 4848,
      "yout": 4849,
      "staff": 4850,
      "unex": 4851,
      "buying": 4852,
      "paral": 4853,
      "released": 4854,
      "sample": 4855,
      "awareness": 4856,
      "ladies": 4857,
      "inevit": 4858,
      "employees": 4859,
      "pleasure": 4860,
      "75": 4861,
      "ber": 4862,
      "pin": 4863,
      "##ses": 4864,
      "##ught": 4865,
      "anderson": 4866,
      "dogs": 4867,
      "atoms": 4868,
      "##eline": 4869,
      "worlds": 4870,
      "impl": 4871,
      "channel": 4872,
      "contr": 4873,
      "monkey": 4874,
      "minim": 4875,
      "serve": 4876,
      "profession": 4877,
      "prepared": 4878,
      "organs": 4879,
      "forgot": 4880,
      "circumst": 4881,
      "establish": 4882,
      "kitchen": 4883,
      "youtube": 4884,
      "##iate": 4885,
      "##itals": 4886,
      "##itarian": 4887,
      "##urb": 4888,
      "##ament": 4889,
      "cha": 4890,
      "tex": 4891,
      "compar": 4892,
      "##abilities": 4893,
      "genet": 4894,
      "techniques": 4895,
      "remain": 4896,
      "personally": 4897,
      "engaged": 4898,
      "reprodu": 4899,
      "introduce": 4900,
      "introduced": 4901,
      "discussion": 4902,
      "spectrum": 4903,
      "components": 4904,
      "laptop": 4905,
      "las": 4906,
      "##oh": 4907,
      "##lation": 4908,
      "##oting": 4909,
      "wash": 4910,
      "orch": 4911,
      "##cip": 4912,
      "discipl": 4913,
      "invention": 4914,
      "glam": 4915,
      "metal": 4916,
      "regions": 4917,
      "environments": 4918,
      "radiation": 4919,
      "sensitive": 4920,
      "recorded": 4921,
      "practical": 4922,
      "pollution": 4923,
      "mirror": 4924,
      "encoura": 4925,
      "restaurant": 4926,
      "newspaper": 4927,
      "diction": 4928,
      "hol": 4929,
      "hill": 4930,
      "##ha": 4931,
      "##bi": 4932,
      "shame": 4933,
      "uns": 4934,
      "unus": 4935,
      "disaster": 4936,
      "scared": 4937,
      "##aker": 4938,
      "factors": 4939,
      "court": 4940,
      "centers": 4941,
      "clever": 4942,
      "marine": 4943,
      "diam": 4944,
      "crack": 4945,
      "literature": 4946,
      "satis": 4947,
      "analog": 4948,
      "axis": 4949,
      "abstract": 4950,
      "22": 4951,
      "fishing": 4952,
      "oct": 4953,
      "sides": 4954,
      "wal": 4955,
      "##icip": 4956,
      "##rof": 4957,
      "union": 4958,
      "medium": 4959,
      "naturally": 4960,
      "lessons": 4961,
      "advent": 4962,
      "option": 4963,
      "privacy": 4964,
      "obser": 4965,
      "evolutionary": 4966,
      "blocks": 4967,
      "mistake": 4968,
      "sweet": 4969,
      "applied": 4970,
      "nasa": 4971,
      "ox": 4972,
      "##mp": 4973,
      "##lom": 4974,
      "max": 4975,
      "ens": 4976,
      "pole": 4977,
      "phr": 4978,
      "afterno": 4979,
      "skill": 4980,
      "processing": 4981,
      "charles": 4982,
      "confidence": 4983,
      "soul": 4984,
      "records": 4985,
      "psychology": 4986,
      "combination": 4987,
      "affected": 4988,
      "forests": 4989,
      "harvest": 4990,
      "sports": 4991,
      "opinion": 4992,
      "liquid": 4993,
      "bicy": 4994,
      "cere": 4995,
      "hi": 4996,
      "ii": 4997,
      "rational": 4998,
      "##ded": 4999,
      "perception": 5000,
      "clip": 5001,
      "adj": 5002,
      "runs": 5003,
      "singing": 5004,
      "2000": 5005,
      "windows": 5006,
      "protected": 5007,
      "critic": 5008,
      "hotel": 5009,
      "estim": 5010,
      "##porary": 5011,
      "islands": 5012,
      "telescope": 5013,
      "false": 5014,
      "illegal": 5015,
      "bes": 5016,
      "wine": 5017,
      "##und": 5018,
      "##orous": 5019,
      "inher": 5020,
      "##icing": 5021,
      "##igm": 5022,
      "conver": 5023,
      "theme": 5024,
      "acting": 5025,
      "##cience": 5026,
      "goods": 5027,
      "brothers": 5028,
      "polar": 5029,
      "steve": 5030,
      "performing": 5031,
      "reached": 5032,
      "destruction": 5033,
      "rocket": 5034,
      "traveling": 5035,
      "relevant": 5036,
      "neighbors": 5037,
      "efficiency": 5038,
      "laboratory": 5039,
      "michael": 5040,
      "pacific": 5041,
      "23": 5042,
      "cortex": 5043,
      "honey": 5044,
      "lying": 5045,
      "##cap": 5046,
      "##ingu": 5047,
      "style": 5048,
      "notes": 5049,
      "mac": 5050,
      "unkn": 5051,
      "perm": 5052,
      "score": 5053,
      "apparent": 5054,
      "formed": 5055,
      "electro": 5056,
      "##ternal": 5057,
      "include": 5058,
      "silence": 5059,
      "required": 5060,
      "severe": 5061,
      "pulled": 5062,
      "participate": 5063,
      "collaboration": 5064,
      "russia": 5065,
      "sophisticated": 5066,
      "ingred": 5067,
      "alex": 5068,
      "cord": 5069,
      "cave": 5070,
      "ought": 5071,
      "pitch": 5072,
      "vag": 5073,
      "##uits": 5074,
      "##gers": 5075,
      "##qually": 5076,
      "input": 5077,
      "##urance": 5078,
      "button": 5079,
      "actions": 5080,
      "perman": 5081,
      "quarter": 5082,
      "features": 5083,
      "technological": 5084,
      "courage": 5085,
      "2008": 5086,
      "physically": 5087,
      "keeps": 5088,
      "fundamentally": 5089,
      "dropped": 5090,
      "empathy": 5091,
      "hoping": 5092,
      "transportation": 5093,
      "vehicles": 5094,
      "mosqu": 5095,
      "interpret": 5096,
      "unusual": 5097,
      "equally": 5098,
      "rig": 5099,
      "sir": 5100,
      "tent": 5101,
      "upper": 5102,
      "storm": 5103,
      "comment": 5104,
      "neither": 5105,
      "spider": 5106,
      "compos": 5107,
      "feature": 5108,
      "mont": 5109,
      "biom": 5110,
      "memories": 5111,
      "largely": 5112,
      "meaningful": 5113,
      "horiz": 5114,
      "ultimate": 5115,
      "linked": 5116,
      "activities": 5117,
      "clinic": 5118,
      "manufacturing": 5119,
      "algorithms": 5120,
      "hits": 5121,
      "tape": 5122,
      "##nes": 5123,
      "##ham": 5124,
      "##ara": 5125,
      "stan": 5126,
      "##umps": 5127,
      "trig": 5128,
      "##usive": 5129,
      "pregn": 5130,
      "pool": 5131,
      "contem": 5132,
      "remo": 5133,
      "194": 5134,
      "repub": 5135,
      "eastern": 5136,
      "defined": 5137,
      "marketing": 5138,
      "increased": 5139,
      "sunlight": 5140,
      "senses": 5141,
      "embarr": 5142,
      "stronger": 5143,
      "combined": 5144,
      "hospitals": 5145,
      "sustainability": 5146,
      "birthday": 5147,
      "2010": 5148,
      "burning": 5149,
      "doubt": 5150,
      "renew": 5151,
      "eggs": 5152,
      "ancestors": 5153,
      "afternoon": 5154,
      "embarrass": 5155,
      "aug": 5156,
      "bat": 5157,
      "dedic": 5158,
      "fert": 5159,
      "##ca": 5160,
      "##roll": 5161,
      "sees": 5162,
      "##ums": 5163,
      "underwater": 5164,
      "musical": 5165,
      "computing": 5166,
      "election": 5167,
      "internal": 5168,
      "joke": 5169,
      "topic": 5170,
      "amazon": 5171,
      "tests": 5172,
      "operate": 5173,
      "silk": 5174,
      "circuit": 5175,
      "tracking": 5176,
      "mechanism": 5177,
      "authority": 5178,
      "occurred": 5179,
      "border": 5180,
      "fifth": 5181,
      "dut": 5182,
      "jer": 5183,
      "tan": 5184,
      "##lands": 5185,
      "##bre": 5186,
      "##iring": 5187,
      "##ros": 5188,
      "span": 5189,
      "##aren": 5190,
      "##abled": 5191,
      "boston": 5192,
      "solved": 5193,
      "functions": 5194,
      "digit": 5195,
      "falling": 5196,
      "administ": 5197,
      "cooking": 5198,
      "mistakes": 5199,
      "inequ": 5200,
      "tonight": 5201,
      "swimming": 5202,
      "framework": 5203,
      "accompl": 5204,
      "dot": 5205,
      "hook": 5206,
      "ip": 5207,
      "pair": 5208,
      "ven": 5209,
      "anx": 5210,
      "france": 5211,
      "##ula": 5212,
      "somewh": 5213,
      "contrast": 5214,
      "desper": 5215,
      "meter": 5216,
      "mush": 5217,
      "tested": 5218,
      "director": 5219,
      "constant": 5220,
      "psychological": 5221,
      "mathematic": 5222,
      "mechanical": 5223,
      "proteins": 5224,
      "electronic": 5225,
      "exploration": 5226,
      "diplom": 5227,
      "republic": 5228,
      "somewhat": 5229,
      "##han": 5230,
      "##za": 5231,
      "reject": 5232,
      "##stic": 5233,
      "haw": 5234,
      "excell": 5235,
      "dece": 5236,
      "coord": 5237,
      "drives": 5238,
      "bio": 5239,
      "former": 5240,
      "confront": 5241,
      "virgin": 5242,
      "potentially": 5243,
      "ridic": 5244,
      "##iption": 5245,
      "infected": 5246,
      "fisher": 5247,
      "fake": 5248,
      "gulf": 5249,
      "ment": 5250,
      "##van": 5251,
      "##lying": 5252,
      "section": 5253,
      "hem": 5254,
      "shar": 5255,
      "nowhere": 5256,
      "##abol": 5257,
      "cock": 5258,
      "poly": 5259,
      "overall": 5260,
      "##acles": 5261,
      "scar": 5262,
      "creature": 5263,
      "solving": 5264,
      "19th": 5265,
      "extinct": 5266,
      "visible": 5267,
      "milk": 5268,
      "advice": 5269,
      "collected": 5270,
      "operation": 5271,
      "amounts": 5272,
      "existing": 5273,
      "occasion": 5274,
      "entertain": 5275,
      "frag": 5276,
      "initi": 5277,
      "spiritual": 5278,
      "housing": 5279,
      "dramatic": 5280,
      "piano": 5281,
      "cup": 5282,
      "furn": 5283,
      "lake": 5284,
      "pra": 5285,
      "pink": 5286,
      "##ox": 5287,
      "##rated": 5288,
      "##gl": 5289,
      "thick": 5290,
      "whales": 5291,
      "plate": 5292,
      "##ortion": 5293,
      "overwh": 5294,
      "drill": 5295,
      "string": 5296,
      "subs": 5297,
      "presence": 5298,
      "globe": 5299,
      "figures": 5300,
      "memor": 5301,
      "defense": 5302,
      "absor": 5303,
      "depth": 5304,
      "violent": 5305,
      "volume": 5306,
      "photographs": 5307,
      "concrete": 5308,
      "narrative": 5309,
      "innovative": 5310,
      "antibiot": 5311,
      "appropriate": 5312,
      "conclusion": 5313,
      "unknown": 5314,
      "overwhel": 5315,
      "iphone": 5316,
      "nest": 5317,
      "nurs": 5318,
      "py": 5319,
      "sets": 5320,
      "##my": 5321,
      "##eal": 5322,
      "##rom": 5323,
      "##ered": 5324,
      "##esh": 5325,
      "bell": 5326,
      "reverse": 5327,
      "##ateful": 5328,
      "##oses": 5329,
      "intense": 5330,
      "wherever": 5331,
      "##berg": 5332,
      "percentage": 5333,
      "economists": 5334,
      "rooms": 5335,
      "stret": 5336,
      "hyper": 5337,
      "falls": 5338,
      "stayed": 5339,
      "cyber": 5340,
      "subjects": 5341,
      "inspiration": 5342,
      "appreciate": 5343,
      "explanation": 5344,
      "ritual": 5345,
      "cents": 5346,
      "hat": 5347,
      "##isters": 5348,
      "chose": 5349,
      "clust": 5350,
      "resil": 5351,
      "adam": 5352,
      "##elly": 5353,
      "remains": 5354,
      "instruct": 5355,
      "obst": 5356,
      "sla": 5357,
      "strang": 5358,
      "recom": 5359,
      "bike": 5360,
      "curve": 5361,
      "paris": 5362,
      "films": 5363,
      "providing": 5364,
      "collapse": 5365,
      "explained": 5366,
      "architects": 5367,
      "multi": 5368,
      "roads": 5369,
      "songs": 5370,
      "conversations": 5371,
      "attacks": 5372,
      "breathe": 5373,
      "clouds": 5374,
      "dynam": 5375,
      "surrounded": 5376,
      "taste": 5377,
      "accurate": 5378,
      "zoom": 5379,
      "clothes": 5380,
      "cas": 5381,
      "fiction": 5382,
      "lens": 5383,
      "mere": 5384,
      "pump": 5385,
      "tack": 5386,
      "##inction": 5387,
      "##alu": 5388,
      "##sec": 5389,
      "##keys": 5390,
      "outcome": 5391,
      "ears": 5392,
      "remove": 5393,
      "explos": 5394,
      "productive": 5395,
      "trend": 5396,
      "##aneously": 5397,
      "embed": 5398,
      "presentation": 5399,
      "combine": 5400,
      "error": 5401,
      "lifest": 5402,
      "flew": 5403,
      "shaped": 5404,
      "##llywood": 5405,
      "wireless": 5406,
      "queen": 5407,
      "horrible": 5408,
      "circumstances": 5409,
      "bones": 5410,
      "pill": 5411,
      "voc": 5412,
      "##mon": 5413,
      "##time": 5414,
      "##uild": 5415,
      "##cal": 5416,
      "thom": 5417,
      "##ita": 5418,
      "##iture": 5419,
      "anonym": 5420,
      "##aming": 5421,
      "sept": 5422,
      "##ads": 5423,
      "decline": 5424,
      "conserv": 5425,
      "##hips": 5426,
      "joined": 5427,
      "2007": 5428,
      "educational": 5429,
      "closely": 5430,
      "measured": 5431,
      "capitalism": 5432,
      "assume": 5433,
      "angry": 5434,
      "scratch": 5435,
      "##iosity": 5436,
      "applications": 5437,
      "elephant": 5438,
      "infinite": 5439,
      "split": 5440,
      "wikip": 5441,
      "aqu": 5442,
      "jail": 5443,
      "loud": 5444,
      "nose": 5445,
      "zone": 5446,
      "##ey": 5447,
      "##off": 5448,
      "##uel": 5449,
      "##rel": 5450,
      "##esome": 5451,
      "whist": 5452,
      "whale": 5453,
      "##adic": 5454,
      "chip": 5455,
      "##osh": 5456,
      "expon": 5457,
      "evening": 5458,
      "gray": 5459,
      "transpl": 5460,
      "centuries": 5461,
      "repair": 5462,
      "generated": 5463,
      "allowing": 5464,
      "autism": 5465,
      "statement": 5466,
      "advance": 5467,
      "sensors": 5468,
      "deaths": 5469,
      "limits": 5470,
      "options": 5471,
      "footprint": 5472,
      "feeding": 5473,
      "divide": 5474,
      "christmas": 5475,
      "uncom": 5476,
      "script": 5477,
      "frankly": 5478,
      "romantic": 5479,
      "therapy": 5480,
      "gentlemen": 5481,
      "symptoms": 5482,
      "bg": 5483,
      "boring": 5484,
      "cash": 5485,
      "der": 5486,
      "fib": 5487,
      "horm": 5488,
      "nic": 5489,
      "papers": 5490,
      "rush": 5491,
      "##ole": 5492,
      "##oint": 5493,
      "##hen": 5494,
      "##iders": 5495,
      "anger": 5496,
      "atom": 5497,
      "deploy": 5498,
      "loop": 5499,
      "humor": 5500,
      "gras": 5501,
      "datab": 5502,
      "handle": 5503,
      "##gging": 5504,
      "standards": 5505,
      "surely": 5506,
      "label": 5507,
      "challenging": 5508,
      "provided": 5509,
      "behavioral": 5510,
      "flowers": 5511,
      "fingers": 5512,
      "angeles": 5513,
      "embrace": 5514,
      "navig": 5515,
      "mosquit": 5516,
      "bay": 5517,
      "jul": 5518,
      "##wor": 5519,
      "##iters": 5520,
      "##itors": 5521,
      "item": 5522,
      "weigh": 5523,
      "##cend": 5524,
      "chocol": 5525,
      "peer": 5526,
      "##ogue": 5527,
      "shell": 5528,
      "resolution": 5529,
      "phase": 5530,
      "grateful": 5531,
      "relate": 5532,
      "treating": 5533,
      "identical": 5534,
      "rocks": 5535,
      "obsessed": 5536,
      "villages": 5537,
      "faced": 5538,
      "conclud": 5539,
      "pollen": 5540,
      "samples": 5541,
      "passionate": 5542,
      "paradigm": 5543,
      "september": 5544,
      "wikipedia": 5545,
      "aster": 5546,
      "dress": 5547,
      "dense": 5548,
      "gps": 5549,
      "mim": 5550,
      "ric": 5551,
      "raw": 5552,
      "tro": 5553,
      "##ih": 5554,
      "##cence": 5555,
      "##inations": 5556,
      "neut": 5557,
      "tab": 5558,
      "implement": 5559,
      "flower": 5560,
      "##athers": 5561,
      "owners": 5562,
      "transfer": 5563,
      "grab": 5564,
      "busy": 5565,
      "distinct": 5566,
      "constit": 5567,
      "consumers": 5568,
      "transformed": 5569,
      "irr": 5570,
      "portra": 5571,
      "logic": 5572,
      "ignor": 5573,
      "instruments": 5574,
      "application": 5575,
      "paralle": 5576,
      "mushroom": 5577,
      "[\"": 5578,
      "ack": 5579,
      "icon": 5580,
      "##lock": 5581,
      "##eness": 5582,
      "##eding": 5583,
      "reference": 5584,
      "##opy": 5585,
      "dozen": 5586,
      "##olving": 5587,
      "shake": 5588,
      "myster": 5589,
      "tri": 5590,
      "seek": 5591,
      "ages": 5592,
      "technique": 5593,
      "extent": 5594,
      "corres": 5595,
      "organism": 5596,
      "##crim": 5597,
      "##ographer": 5598,
      "greenhouse": 5599,
      "recording": 5600,
      "robotic": 5601,
      "250": 5602,
      "causing": 5603,
      "floating": 5604,
      "policies": 5605,
      "dancing": 5606,
      "hello": 5607,
      "determine": 5608,
      "resistance": 5609,
      "muslims": 5610,
      "recyc": 5611,
      "mystery": 5612,
      "cath": 5613,
      "gest": 5614,
      "mice": 5615,
      "oly": 5616,
      "pushing": 5617,
      "rail": 5618,
      "sque": 5619,
      "tube": 5620,
      "##hal": 5621,
      "##pes": 5622,
      "inject": 5623,
      "##sters": 5624,
      "stro": 5625,
      "##opes": 5626,
      "outc": 5627,
      "enable": 5628,
      "plans": 5629,
      "acts": 5630,
      "sacr": 5631,
      "root": 5632,
      "shoulder": 5633,
      "boom": 5634,
      "monkeys": 5635,
      "careful": 5636,
      "corals": 5637,
      "earthqu": 5638,
      "younger": 5639,
      "reaching": 5640,
      "boxes": 5641,
      "suggests": 5642,
      "awesome": 5643,
      "admit": 5644,
      "fixed": 5645,
      "celebrate": 5646,
      "rhythm": 5647,
      "unexpected": 5648,
      "olymp": 5649,
      "##hol": 5650,
      "##father": 5651,
      "##ota": 5652,
      "##child": 5653,
      "##anta": 5654,
      "spinal": 5655,
      "suic": 5656,
      "arrest": 5657,
      "pharm": 5658,
      "robert": 5659,
      "download": 5660,
      "funding": 5661,
      "finance": 5662,
      "economies": 5663,
      "interestingly": 5664,
      "parking": 5665,
      "breaking": 5666,
      "equation": 5667,
      "breathing": 5668,
      "vaccine": 5669,
      "fabric": 5670,
      "puzzle": 5671,
      "agreed": 5672,
      "welcome": 5673,
      "poorest": 5674,
      "june": 5675,
      "till": 5676,
      "##mm": 5677,
      "##ault": 5678,
      "##greg": 5679,
      "##rets": 5680,
      "##oned": 5681,
      "stack": 5682,
      "liver": 5683,
      "##ille": 5684,
      "colum": 5685,
      "obes": 5686,
      "curiosity": 5687,
      "wondered": 5688,
      "continued": 5689,
      "classes": 5690,
      "diabet": 5691,
      "constrain": 5692,
      "anticip": 5693,
      "measuring": 5694,
      "telephone": 5695,
      "higgs": 5696,
      "domestic": 5697,
      "emergency": 5698,
      "golden": 5699,
      "narrator": 5700,
      "algorithm": 5701,
      "implications": 5702,
      "orchest": 5703,
      "dign": 5704,
      "sin": 5705,
      "sed": 5706,
      "ts": 5707,
      "##oons": 5708,
      "##now": 5709,
      "##rition": 5710,
      "##ba": 5711,
      "##bed": 5712,
      "##arant": 5713,
      "##cel": 5714,
      "meg": 5715,
      "fright": 5716,
      "knock": 5717,
      "ours": 5718,
      "prices": 5719,
      "agency": 5720,
      "gla": 5721,
      "traum": 5722,
      "elim": 5723,
      "corn": 5724,
      "prescr": 5725,
      "secure": 5726,
      "increases": 5727,
      "raising": 5728,
      "existed": 5729,
      "arguments": 5730,
      "mainly": 5731,
      "aston": 5732,
      "heroes": 5733,
      "drinking": 5734,
      "selection": 5735,
      "mammals": 5736,
      "borders": 5737,
      "disorders": 5738,
      "toilet": 5739,
      "penguins": 5740,
      "conventional": 5741,
      "thomas": 5742,
      "obesity": 5743,
      "du": 5744,
      "fan": 5745,
      "rw": 5746,
      "rab": 5747,
      "##can": 5748,
      "##bits": 5749,
      "##yal": 5750,
      "stands": 5751,
      "##imeter": 5752,
      "##iled": 5753,
      "sahar": 5754,
      "unclear": 5755,
      "coin": 5756,
      "twe": 5757,
      "firm": 5758,
      "flood": 5759,
      "carried": 5760,
      "instinct": 5761,
      "storyt": 5762,
      "polio": 5763,
      "2009": 5764,
      "2005": 5765,
      "improv": 5766,
      "recognition": 5767,
      "directions": 5768,
      "concert": 5769,
      "struck": 5770,
      "offered": 5771,
      "judge": 5772,
      "##fficient": 5773,
      "automatically": 5774,
      "latin": 5775,
      "corporate": 5776,
      "murder": 5777,
      "surgeon": 5778,
      "sweden": 5779,
      "autonom": 5780,
      "entertainment": 5781,
      "27": 5782,
      "density": 5783,
      "lung": 5784,
      "pour": 5785,
      "pound": 5786,
      "tip": 5787,
      "##itory": 5788,
      "##etch": 5789,
      "##opia": 5790,
      "chief": 5791,
      "tea": 5792,
      "sphere": 5793,
      "placed": 5794,
      "flor": 5795,
      "smoke": 5796,
      "genius": 5797,
      "colony": 5798,
      "olds": 5799,
      "traged": 5800,
      "airport": 5801,
      "##iox": 5802,
      "properly": 5803,
      "classic": 5804,
      "interactions": 5805,
      "represented": 5806,
      "diagram": 5807,
      "distributed": 5808,
      "controlling": 5809,
      "dramatically": 5810,
      "academic": 5811,
      "january": 5812,
      "license": 5813,
      "stretch": 5814,
      "bob": 5815,
      "cens": 5816,
      "males": 5817,
      "##ost": 5818,
      "##ran": 5819,
      "##rors": 5820,
      "##lines": 5821,
      "##uting": 5822,
      "##amin": 5823,
      "mold": 5824,
      "worker": 5825,
      "prem": 5826,
      "sheep": 5827,
      "overcome": 5828,
      "impress": 5829,
      "lets": 5830,
      "##icted": 5831,
      "flash": 5832,
      "obama": 5833,
      "engaging": 5834,
      "populations": 5835,
      "agend": 5836,
      "household": 5837,
      "collaps": 5838,
      "teams": 5839,
      "illusion": 5840,
      "spreading": 5841,
      "bombs": 5842,
      "budd": 5843,
      "savings": 5844,
      "component": 5845,
      "ghana": 5846,
      "rescue": 5847,
      "korea": 5848,
      "lifestyle": 5849,
      "chocolate": 5850,
      "acknow": 5851,
      "outcomes": 5852,
      "65": 5853,
      "lou": 5854,
      "lun": 5855,
      "sar": 5856,
      "##bage": 5857,
      "##wich": 5858,
      "##asm": 5859,
      "##illance": 5860,
      "delic": 5861,
      "enemy": 5862,
      "##aret": 5863,
      "##ologically": 5864,
      "decre": 5865,
      "stri": 5866,
      "metabol": 5867,
      "grows": 5868,
      "particle": 5869,
      "##while": 5870,
      "patent": 5871,
      "filter": 5872,
      "rising": 5873,
      "expectations": 5874,
      "interactive": 5875,
      "practices": 5876,
      "depending": 5877,
      "receive": 5878,
      "rainforest": 5879,
      "entrepreneur": 5880,
      "cooperation": 5881,
      "disorder": 5882,
      "philosophy": 5883,
      "prototype": 5884,
      "precisely": 5885,
      "shadow": 5886,
      "diabetes": 5887,
      "32": 5888,
      "80s": 5889,
      "dict": 5890,
      "na": 5891,
      "rose": 5892,
      "sales": 5893,
      "##night": 5894,
      "##life": 5895,
      "##da": 5896,
      "##nday": 5897,
      "##otes": 5898,
      "stere": 5899,
      "abuse": 5900,
      "champ": 5901,
      "dear": 5902,
      "##iform": 5903,
      "##rous": 5904,
      "plenty": 5905,
      "intention": 5906,
      "##ogram": 5907,
      "manh": 5908,
      "scary": 5909,
      "lovely": 5910,
      "hardware": 5911,
      "explo": 5912,
      "animation": 5913,
      "connecting": 5914,
      "painful": 5915,
      "silic": 5916,
      "entered": 5917,
      "concepts": 5918,
      "immune": 5919,
      "printing": 5920,
      "uncertain": 5921,
      "##iveness": 5922,
      "title": 5923,
      "sculpture": 5924,
      "maintain": 5925,
      "exhibition": 5926,
      "fortunately": 5927,
      "scenar": 5928,
      "spoken": 5929,
      "phrase": 5930,
      "furniture": 5931,
      "36": 5932,
      "dust": 5933,
      "gig": 5934,
      "yield": 5935,
      "##well": 5936,
      "##va": 5937,
      "toler": 5938,
      "##edy": 5939,
      "##rog": 5940,
      "orient": 5941,
      "orange": 5942,
      "proced": 5943,
      "congo": 5944,
      "tries": 5945,
      "actor": 5946,
      "nobel": 5947,
      "disg": 5948,
      "bron": 5949,
      "designs": 5950,
      "personality": 5951,
      "slides": 5952,
      "powered": 5953,
      "presented": 5954,
      "legacy": 5955,
      "traveled": 5956,
      "hunger": 5957,
      "reported": 5958,
      "laughing": 5959,
      "islamic": 5960,
      "translate": 5961,
      "surveillance": 5962,
      "habitat": 5963,
      "route": 5964,
      "destroyed": 5965,
      "attached": 5966,
      "permanent": 5967,
      "inequality": 5968,
      "antibiotics": 5969,
      "parallel": 5970,
      "70s": 5971,
      "cod": 5972,
      "dh": 5973,
      "diox": 5974,
      "pand": 5975,
      "wing": 5976,
      "wired": 5977,
      "##kind": 5978,
      "ther": 5979,
      "##itz": 5980,
      "##ashing": 5981,
      "##ctic": 5982,
      "alph": 5983,
      "suck": 5984,
      "pocket": 5985,
      "##soft": 5986,
      "imper": 5987,
      "guarant": 5988,
      "appeared": 5989,
      "hardly": 5990,
      "exploring": 5991,
      "walks": 5992,
      "accum": 5993,
      "signed": 5994,
      "interacting": 5995,
      "##heim": 5996,
      "tasks": 5997,
      "magnetic": 5998,
      "kingdom": 5999,
      "fascinated": 6000,
      "latest": 6001,
      "repeat": 6002,
      "candid": 6003,
      "narrow": 6004,
      "vessels": 6005,
      "powers": 6006,
      "vibr": 6007,
      "26": 6008,
      "800": 6009,
      "jes": 6010,
      "wise": 6011,
      "##iety": 6012,
      "aside": 6013,
      "orbit": 6014,
      "usual": 6015,
      "plot": 6016,
      "units": 6017,
      "unbel": 6018,
      "scream": 6019,
      "committed": 6020,
      "imagined": 6021,
      "geomet": 6022,
      "elev": 6023,
      "millenn": 6024,
      "grandfather": 6025,
      "virtually": 6026,
      "divided": 6027,
      "concern": 6028,
      "appears": 6029,
      "thrown": 6030,
      "verb": 6031,
      "simplicity": 6032,
      "customers": 6033,
      "federal": 6034,
      "recovery": 6035,
      "prosper": 6036,
      "commitment": 6037,
      "authent": 6038,
      "bicycle": 6039,
      "adjust": 6040,
      "apparently": 6041,
      "jim": 6042,
      "mall": 6043,
      "pace": 6044,
      "wed": 6045,
      "##over": 6046,
      "##tes": 6047,
      "##rus": 6048,
      "##ener": 6049,
      "anthrop": 6050,
      "ate": 6051,
      "wanting": 6052,
      "tag": 6053,
      "overl": 6054,
      "blank": 6055,
      "##aks": 6056,
      "writer": 6057,
      "persu": 6058,
      "plays": 6059,
      "193": 6060,
      "muscles": 6061,
      "behave": 6062,
      "organize": 6063,
      "controvers": 6064,
      "hearts": 6065,
      "productivity": 6066,
      "microsoft": 6067,
      "recognized": 6068,
      "##box": 6069,
      "ceiling": 6070,
      "transparen": 6071,
      "balloon": 6072,
      "ethi": 6073,
      "sandwich": 6074,
      "shooting": 6075,
      "maxim": 6076,
      "trigger": 6077,
      "dioxide": 6078,
      "transparency": 6079,
      "cab": 6080,
      "fulf": 6081,
      "ooh": 6082,
      "tight": 6083,
      "wings": 6084,
      "##lets": 6085,
      "beer": 6086,
      "haiti": 6087,
      "aband": 6088,
      "chest": 6089,
      "proof": 6090,
      "trop": 6091,
      "##aint": 6092,
      "##agger": 6093,
      "bull": 6094,
      "##akers": 6095,
      "involves": 6096,
      "schol": 6097,
      "glad": 6098,
      "insurance": 6099,
      "monitor": 6100,
      "##azz": 6101,
      "##otech": 6102,
      "cheaper": 6103,
      "meetings": 6104,
      "escape": 6105,
      "limb": 6106,
      "friendly": 6107,
      "football": 6108,
      "silent": 6109,
      "estimate": 6110,
      "amongst": 6111,
      "ignore": 6112,
      "paintings": 6113,
      "ugly": 6114,
      "##connected": 6115,
      "chapter": 6116,
      "lux": 6117,
      "pyram": 6118,
      "embedded": 6119,
      "dignity": 6120,
      "unbeliev": 6121,
      "\"]": 6122,
      "700": 6123,
      "cute": 6124,
      "dere": 6125,
      "gon": 6126,
      "tank": 6127,
      "tired": 6128,
      "##uous": 6129,
      "##col": 6130,
      "youth": 6131,
      "attend": 6132,
      "##raction": 6133,
      "mail": 6134,
      "##osen": 6135,
      "##uses": 6136,
      "sac": 6137,
      "leap": 6138,
      "quad": 6139,
      "##agn": 6140,
      "aggress": 6141,
      "coach": 6142,
      "flip": 6143,
      "invite": 6144,
      "instant": 6145,
      "minor": 6146,
      "native": 6147,
      "reput": 6148,
      "secondly": 6149,
      "africans": 6150,
      "district": 6151,
      "opposed": 6152,
      "##attan": 6153,
      "purch": 6154,
      "##ended": 6155,
      "achieved": 6156,
      "searching": 6157,
      "eradic": 6158,
      "functional": 6159,
      "conflicts": 6160,
      "strategies": 6161,
      "palest": 6162,
      "aspects": 6163,
      "volunteers": 6164,
      "incentives": 6165,
      "neuroscience": 6166,
      "dolphins": 6167,
      "stanford": 6168,
      "agenda": 6169,
      "manhattan": 6170,
      "disgust": 6171,
      "60s": 6172,
      "95": 6173,
      "dirty": 6174,
      "gates": 6175,
      "vital": 6176,
      "wound": 6177,
      "##gue": 6178,
      "##ket": 6179,
      "##iment": 6180,
      "likes": 6181,
      "knee": 6182,
      "evalu": 6183,
      "underground": 6184,
      "granted": 6185,
      "emph": 6186,
      "genoc": 6187,
      "produces": 6188,
      "farmer": 6189,
      "governance": 6190,
      "charity": 6191,
      "legis": 6192,
      "universities": 6193,
      "psychiat": 6194,
      "accepted": 6195,
      "disappeared": 6196,
      "heaven": 6197,
      "colleague": 6198,
      "christian": 6199,
      "engagement": 6200,
      "crying": 6201,
      "titan": 6202,
      "talent": 6203,
      "rebuild": 6204,
      "tower": 6205,
      "punish": 6206,
      "alien": 6207,
      "criminal": 6208,
      "privilege": 6209,
      "texas": 6210,
      "silicon": 6211,
      "drove": 6212,
      "nin": 6213,
      "##nic": 6214,
      "##bl": 6215,
      "##20": 6216,
      "##lete": 6217,
      "##otion": 6218,
      "##iday": 6219,
      "##keep": 6220,
      "golf": 6221,
      "ash": 6222,
      "conven": 6223,
      "yours": 6224,
      "expans": 6225,
      "exposed": 6226,
      "backwards": 6227,
      "roots": 6228,
      "commod": 6229,
      "guard": 6230,
      "globally": 6231,
      "distant": 6232,
      "paras": 6233,
      "devast": 6234,
      "advoc": 6235,
      "legit": 6236,
      "delight": 6237,
      "darkness": 6238,
      "laughter": 6239,
      "apartment": 6240,
      "neighborhoods": 6241,
      "historical": 6242,
      "frozen": 6243,
      "smooth": 6244,
      "linear": 6245,
      "diverse": 6246,
      "adopt": 6247,
      "symmetry": 6248,
      "pilot": 6249,
      "advertising": 6250,
      "atlantic": 6251,
      "vertical": 6252,
      "removed": 6253,
      "recommend": 6254,
      "earthquake": 6255,
      "glaci": 6256,
      "90s": 6257,
      "aim": 6258,
      "boss": 6259,
      "lon": 6260,
      "nit": 6261,
      "veter": 6262,
      "##oll": 6263,
      "theories": 6264,
      "##leton": 6265,
      "beg": 6266,
      "##eters": 6267,
      "sov": 6268,
      "stations": 6269,
      "##ida": 6270,
      "##uration": 6271,
      "##tery": 6272,
      "cham": 6273,
      "clar": 6274,
      "bubb": 6275,
      "scales": 6276,
      "##aws": 6277,
      "margin": 6278,
      "paraly": 6279,
      "continues": 6280,
      "equality": 6281,
      "retire": 6282,
      "collecting": 6283,
      "communications": 6284,
      "reduction": 6285,
      "captured": 6286,
      "terrorists": 6287,
      "angle": 6288,
      "suspect": 6289,
      "smoking": 6290,
      "astronom": 6291,
      "chimpanzees": 6292,
      "hungry": 6293,
      "dedicated": 6294,
      "hub": 6295,
      "mary": 6296,
      "nets": 6297,
      "pm": 6298,
      "tears": 6299,
      "wip": 6300,
      "##iated": 6301,
      "##mers": 6302,
      "##hib": 6303,
      "toys": 6304,
      "wet": 6305,
      "abund": 6306,
      "chosen": 6307,
      "fruit": 6308,
      "external": 6309,
      "actors": 6310,
      "intent": 6311,
      "spell": 6312,
      "adap": 6313,
      "herself": 6314,
      "afterwards": 6315,
      "pointed": 6316,
      "attrib": 6317,
      "skull": 6318,
      "probability": 6319,
      "passen": 6320,
      "elsewhere": 6321,
      "##lessly": 6322,
      "craft": 6323,
      "missed": 6324,
      "extrem": 6325,
      "accessible": 6326,
      "##archy": 6327,
      "transparent": 6328,
      "mechanics": 6329,
      "council": 6330,
      "contribute": 6331,
      "weapon": 6332,
      "optimistic": 6333,
      "electronics": 6334,
      "motivation": 6335,
      "encounter": 6336,
      "microscope": 6337,
      "lecture": 6338,
      "satisf": 6339,
      "aer": 6340,
      "dump": 6341,
      "gir": 6342,
      "hire": 6343,
      "##son": 6344,
      "##och": 6345,
      "##aa": 6346,
      "##ray": 6347,
      "##di": 6348,
      "##vin": 6349,
      "##inals": 6350,
      "##illy": 6351,
      "##osc": 6352,
      "evolve": 6353,
      "poison": 6354,
      "##acular": 6355,
      "finds": 6356,
      "obl": 6357,
      "oldest": 6358,
      "biologists": 6359,
      "capita": 6360,
      "adding": 6361,
      "refr": 6362,
      "provides": 6363,
      "viet": 6364,
      "speaker": 6365,
      "grandchild": 6366,
      "photography": 6367,
      "inspire": 6368,
      "touched": 6369,
      "facial": 6370,
      "banks": 6371,
      "fortune": 6372,
      "efforts": 6373,
      "initial": 6374,
      "dependent": 6375,
      "inspiring": 6376,
      "seeds": 6377,
      "intuitive": 6378,
      "##riend": 6379,
      "transplant": 6380,
      "triang": 6381,
      "borrow": 6382,
      "mt": 6383,
      "ol": 6384,
      "rating": 6385,
      "##nels": 6386,
      "##fall": 6387,
      "##anthrop": 6388,
      "##arters": 6389,
      "##icop": 6390,
      "##vey": 6391,
      "##struct": 6392,
      "doz": 6393,
      "##ulse": 6394,
      "##ckets": 6395,
      "##ifer": 6396,
      "##using": 6397,
      "##usions": 6398,
      "unh": 6399,
      "perpet": 6400,
      "expos": 6401,
      "letting": 6402,
      "2004": 6403,
      "aircraft": 6404,
      "educated": 6405,
      "musicians": 6406,
      "controls": 6407,
      "drawn": 6408,
      "eleg": 6409,
      "funded": 6410,
      "neuron": 6411,
      "120": 6412,
      "essence": 6413,
      "mechanisms": 6414,
      "fluid": 6415,
      "innovations": 6416,
      "journalist": 6417,
      "copyright": 6418,
      "boundaries": 6419,
      "athlet": 6420,
      "uganda": 6421,
      "frequency": 6422,
      "locked": 6423,
      "synthetic": 6424,
      "barely": 6425,
      "dictionary": 6426,
      "ingredients": 6427,
      "pregnant": 6428,
      "fertil": 6429,
      "hemis": 6430,
      "anonymous": 6431,
      "suicide": 6432,
      "tragedy": 6433,
      "vietn": 6434,
      "28": 6435,
      "bol": 6436,
      "bible": 6437,
      "hier": 6438,
      "jelly": 6439,
      "rice": 6440,
      "##pal": 6441,
      "##pass": 6442,
      "##orter": 6443,
      "rely": 6444,
      "neural": 6445,
      "conce": 6446,
      "##ardo": 6447,
      "manif": 6448,
      "willi": 6449,
      "sheet": 6450,
      "lob": 6451,
      "##ibe": 6452,
      "contains": 6453,
      "realm": 6454,
      "##phones": 6455,
      "helicop": 6456,
      "relax": 6457,
      "strip": 6458,
      "lighting": 6459,
      "visited": 6460,
      "trends": 6461,
      "views": 6462,
      "chrom": 6463,
      "textbook": 6464,
      "dimension": 6465,
      "pupp": 6466,
      "participants": 6467,
      "salt": 6468,
      "citizen": 6469,
      "catast": 6470,
      "methods": 6471,
      "utter": 6472,
      "jeff": 6473,
      "beliefs": 6474,
      "jewish": 6475,
      "reefs": 6476,
      "surfaces": 6477,
      "laser": 6478,
      "excellent": 6479,
      "sharp": 6480,
      "ignorance": 6481,
      "autonomous": 6482,
      "dive": 6483,
      "naked": 6484,
      "pad": 6485,
      "rang": 6486,
      "wid": 6487,
      "##ixt": 6488,
      "##rier": 6489,
      "inch": 6490,
      "##asive": 6491,
      "##lyn": 6492,
      "soap": 6493,
      "stable": 6494,
      "stages": 6495,
      "##very": 6496,
      "##think": 6497,
      "shirt": 6498,
      "output": 6499,
      "enh": 6500,
      "##udes": 6501,
      "cliff": 6502,
      "emer": 6503,
      "guide": 6504,
      "schiz": 6505,
      "elections": 6506,
      "regret": 6507,
      "accidents": 6508,
      "robust": 6509,
      "operations": 6510,
      "observ": 6511,
      "balls": 6512,
      "layers": 6513,
      "ultra": 6514,
      "links": 6515,
      "vacu": 6516,
      "improvement": 6517,
      "agricultural": 6518,
      "symbols": 6519,
      "injury": 6520,
      "shrimp": 6521,
      "martin": 6522,
      "waters": 6523,
      "dominant": 6524,
      "chaos": 6525,
      "uncomfort": 6526,
      "emphas": 6527,
      "33": 6528,
      "bos": 6529,
      "kiss": 6530,
      "mate": 6531,
      "##lies": 6532,
      "thumb": 6533,
      "##rect": 6534,
      "italy": 6535,
      "seats": 6536,
      "twenty": 6537,
      "poster": 6538,
      "##iac": 6539,
      "commission": 6540,
      "earn": 6541,
      "crops": 6542,
      "consult": 6543,
      "monit": 6544,
      "bias": 6545,
      "hollywood": 6546,
      "stops": 6547,
      "globalization": 6548,
      "gee": 6549,
      "identified": 6550,
      "consume": 6551,
      "origami": 6552,
      "pulling": 6553,
      "circles": 6554,
      "suggesting": 6555,
      "ethical": 6556,
      "##pox": 6557,
      "delivered": 6558,
      "affordable": 6559,
      "calculate": 6560,
      "integrated": 6561,
      "crucial": 6562,
      "skept": 6563,
      "isolated": 6564,
      "passwords": 6565,
      "ridiculous": 6566,
      "dynamics": 6567,
      "database": 6568,
      "richer": 6569,
      "dozens": 6570,
      "bars": 6571,
      "cott": 6572,
      "fiber": 6573,
      "lit": 6574,
      "pile": 6575,
      "ub": 6576,
      "##mal": 6577,
      "##toc": 6578,
      "##walk": 6579,
      "##val": 6580,
      "##ato": 6581,
      "ink": 6582,
      "##ione": 6583,
      "neat": 6584,
      "##aus": 6585,
      "##inder": 6586,
      "lean": 6587,
      "disrupt": 6588,
      "##ptions": 6589,
      "smith": 6590,
      "persist": 6591,
      "owned": 6592,
      "recru": 6593,
      "smallpox": 6594,
      "capability": 6595,
      "settle": 6596,
      "passing": 6597,
      "photographer": 6598,
      "proper": 6599,
      "depressed": 6600,
      "soldier": 6601,
      "reports": 6602,
      "intervention": 6603,
      "##going": 6604,
      "crossing": 6605,
      "laid": 6606,
      "sticks": 6607,
      "oxytoc": 6608,
      "spectacular": 6609,
      "demonstrate": 6610,
      "tort": 6611,
      "tribes": 6612,
      "hanging": 6613,
      "announced": 6614,
      "oxford": 6615,
      "anxiety": 6616,
      "strangers": 6617,
      "reputation": 6618,
      "grandchildren": 6619,
      "oxytocin": 6620,
      "ba": 6621,
      "bf": 6622,
      "dop": 6623,
      "nick": 6624,
      "punch": 6625,
      "picking": 6626,
      "tub": 6627,
      "##aust": 6628,
      "##alian": 6629,
      "beet": 6630,
      "##sets": 6631,
      "render": 6632,
      "##igr": 6633,
      "sevent": 6634,
      "##through": 6635,
      "upset": 6636,
      "happier": 6637,
      "adoles": 6638,
      "blame": 6639,
      "incident": 6640,
      "##onscious": 6641,
      "opens": 6642,
      "trag": 6643,
      "caps": 6644,
      "respo": 6645,
      "cambr": 6646,
      "figuring": 6647,
      "treatments": 6648,
      "audio": 6649,
      "experimental": 6650,
      "edges": 6651,
      "speakers": 6652,
      "grandp": 6653,
      "breakthrough": 6654,
      "includes": 6655,
      "separated": 6656,
      "debt": 6657,
      "tuna": 6658,
      "cryst": 6659,
      "arabic": 6660,
      "hackers": 6661,
      "teenagers": 6662,
      "category": 6663,
      "originally": 6664,
      "briefly": 6665,
      "makers": 6666,
      "genocide": 6667,
      "schizoph": 6668,
      "uncomfortable": 6669,
      "aesth": 6670,
      "dow": 6671,
      "rio": 6672,
      "tied": 6673,
      "##oids": 6674,
      "##bra": 6675,
      "##onic": 6676,
      "##igation": 6677,
      "chron": 6678,
      "##illing": 6679,
      "degrad": 6680,
      "alco": 6681,
      "spark": 6682,
      "enth": 6683,
      "##ares": 6684,
      "quit": 6685,
      "arctic": 6686,
      "parties": 6687,
      "fool": 6688,
      "ending": 6689,
      "fuels": 6690,
      "traject": 6691,
      "biod": 6692,
      "painted": 6693,
      "##mingly": 6694,
      "brave": 6695,
      "protecting": 6696,
      "predictions": 6697,
      "reduced": 6698,
      "characteristics": 6699,
      "variation": 6700,
      "returned": 6701,
      "tricks": 6702,
      "dinosaur": 6703,
      "rarely": 6704,
      "wheelch": 6705,
      "aspir": 6706,
      "assembly": 6707,
      "revenue": 6708,
      "nurses": 6709,
      "conclude": 6710,
      "rwanda": 6711,
      "lungs": 6712,
      "##heimer": 6713,
      "soviet": 6714,
      "emerge": 6715,
      "alcohol": 6716,
      "85": 6717,
      "ain": 6718,
      "boo": 6719,
      "gand": 6720,
      "os": 6721,
      "peter": 6722,
      "ss": 6723,
      "session": 6724,
      "##iance": 6725,
      "##oir": 6726,
      "##uff": 6727,
      "theore": 6728,
      "##oma": 6729,
      "##utical": 6730,
      "recip": 6731,
      "##opher": 6732,
      "alb": 6733,
      "spots": 6734,
      "comprom": 6735,
      "agencies": 6736,
      "##ache": 6737,
      "partly": 6738,
      "syr": 6739,
      "carol": 6740,
      "simult": 6741,
      "handed": 6742,
      "regener": 6743,
      "2006": 6744,
      "2001": 6745,
      "confident": 6746,
      "excuse": 6747,
      "programming": 6748,
      "thirds": 6749,
      "impacts": 6750,
      "nucle": 6751,
      "automob": 6752,
      "liberal": 6753,
      "determined": 6754,
      "physicist": 6755,
      "consequence": 6756,
      "expanding": 6757,
      "ecosystems": 6758,
      "unlikely": 6759,
      "constructed": 6760,
      "bathroom": 6761,
      "mysterious": 6762,
      "florida": 6763,
      "ethiopia": 6764,
      "manifest": 6765,
      "chromos": 6766,
      "vacuum": 6767,
      "hip": 6768,
      "pir": 6769,
      "pione": 6770,
      "silly": 6771,
      "wra": 6772,
      "##talk": 6773,
      "##hop": 6774,
      "##ua": 6775,
      "##case": 6776,
      "##west": 6777,
      "##era": 6778,
      "stom": 6779,
      "stores": 6780,
      "chim": 6781,
      "spa": 6782,
      "##aceutical": 6783,
      "clay": 6784,
      "disag": 6785,
      "underlying": 6786,
      "smarter": 6787,
      "writers": 6788,
      "##ighter": 6789,
      "crick": 6790,
      "mode": 6791,
      "attitude": 6792,
      "openness": 6793,
      "discoveries": 6794,
      "geographic": 6795,
      "tedtalk": 6796,
      "landed": 6797,
      "antar": 6798,
      "sensory": 6799,
      "volcan": 6800,
      "facility": 6801,
      "hunting": 6802,
      "philanthrop": 6803,
      "primarily": 6804,
      "pushed": 6805,
      "reminded": 6806,
      "resistant": 6807,
      "repeated": 6808,
      "trucks": 6809,
      "##ogenesis": 6810,
      "branch": 6811,
      "vagina": 6812,
      "schizophren": 6813,
      "bure": 6814,
      "cert": 6815,
      "cats": 6816,
      "duck": 6817,
      "fer": 6818,
      "ng": 6819,
      "sink": 6820,
      "sulf": 6821,
      "sisters": 6822,
      "##sing": 6823,
      "##ober": 6824,
      "##under": 6825,
      "##bar": 6826,
      "##ds": 6827,
      "##zheimer": 6828,
      "thresh": 6829,
      "threw": 6830,
      "inches": 6831,
      "##stand": 6832,
      "stab": 6833,
      "##ura": 6834,
      "doors": 6835,
      "meal": 6836,
      "alzheimer": 6837,
      "##iel": 6838,
      "##apor": 6839,
      "pretend": 6840,
      "clients": 6841,
      "##cond": 6842,
      "caring": 6843,
      "drivers": 6844,
      "farming": 6845,
      "curren": 6846,
      "cheese": 6847,
      "positions": 6848,
      "measures": 6849,
      "supermark": 6850,
      "sentences": 6851,
      "predicted": 6852,
      "industries": 6853,
      "enterpr": 6854,
      "statist": 6855,
      "array": 6856,
      "targets": 6857,
      "johns": 6858,
      "wildlife": 6859,
      "assumptions": 6860,
      "shelf": 6861,
      "shopping": 6862,
      "elephants": 6863,
      "extended": 6864,
      "october": 6865,
      "besides": 6866,
      "resilience": 6867,
      "pyramid": 6868,
      "unbelievable": 6869,
      "sacred": 6870,
      "bubbles": 6871,
      "threshold": 6872,
      "cable": 6873,
      "fract": 6874,
      "fought": 6875,
      "gases": 6876,
      "tu": 6877,
      "##rix": 6878,
      "##de": 6879,
      "##fin": 6880,
      "##ville": 6881,
      "tooth": 6882,
      "beij": 6883,
      "##opard": 6884,
      "butt": 6885,
      "chairs": 6886,
      "outs": 6887,
      "##ela": 6888,
      "exped": 6889,
      "agent": 6890,
      "arrow": 6891,
      "reson": 6892,
      "acid": 6893,
      "scores": 6894,
      "mayor": 6895,
      "owner": 6896,
      "artistic": 6897,
      "served": 6898,
      "confir": 6899,
      "objective": 6900,
      "holds": 6901,
      "focusing": 6902,
      "observation": 6903,
      "saturn": 6904,
      "lifes": 6905,
      "burst": 6906,
      "panel": 6907,
      "translated": 6908,
      "throwing": 6909,
      "initially": 6910,
      "turkey": 6911,
      "frog": 6912,
      "surprisingly": 6913,
      "satellites": 6914,
      "shelter": 6915,
      "reveal": 6916,
      "elderly": 6917,
      "inevitable": 6918,
      "forgotten": 6919,
      "##capes": 6920,
      "occasionally": 6921,
      "slavery": 6922,
      "begun": 6923,
      "gy": 6924,
      "hitting": 6925,
      "hipp": 6926,
      "mri": 6927,
      "sits": 6928,
      "##oe": 6929,
      "##top": 6930,
      "##ris": 6931,
      "##bru": 6932,
      "tone": 6933,
      "##ometer": 6934,
      "whis": 6935,
      "bears": 6936,
      "##ilit": 6937,
      "##usi": 6938,
      "##izar": 6939,
      "prec": 6940,
      "phosph": 6941,
      "lethal": 6942,
      "##obi": 6943,
      "involve": 6944,
      "imaging": 6945,
      "founded": 6946,
      "191": 6947,
      "metric": 6948,
      "warning": 6949,
      "economist": 6950,
      "subtle": 6951,
      "foods": 6952,
      "headed": 6953,
      "joint": 6954,
      "disturb": 6955,
      "protest": 6956,
      "answered": 6957,
      "selfish": 6958,
      "excl": 6959,
      "gods": 6960,
      "sensor": 6961,
      "failing": 6962,
      "architectural": 6963,
      "winning": 6964,
      "irre": 6965,
      "promote": 6966,
      "gradually": 6967,
      "sleeping": 6968,
      "1990s": 6969,
      "emerged": 6970,
      "primitive": 6971,
      "panels": 6972,
      "participation": 6973,
      "graphic": 6974,
      "immediate": 6975,
      "collaborative": 6976,
      "documents": 6977,
      "baseball": 6978,
      "vulnerability": 6979,
      "consistent": 6980,
      "flexible": 6981,
      "permission": 6982,
      "gonna": 6983,
      "expansion": 6984,
      "bother": 6985,
      "nom": 6986,
      "##erable": 6987,
      "##erved": 6988,
      "##itudes": 6989,
      "##amine": 6990,
      "##rol": 6991,
      "abilities": 6992,
      "##ulum": 6993,
      "plain": 6994,
      "plug": 6995,
      "uncle": 6996,
      "leverage": 6997,
      "##agon": 6998,
      "needle": 6999,
      "brut": 7000,
      "grat": 7001,
      "flour": 7002,
      "##ails": 7003,
      "helpful": 7004,
      "imagery": 7005,
      "elected": 7006,
      "regime": 7007,
      "2003": 7008,
      "physi": 7009,
      "parli": 7010,
      "proposed": 7011,
      "magical": 7012,
      "devil": 7013,
      "killer": 7014,
      "assess": 7015,
      "craw": 7016,
      "difficulty": 7017,
      "opera": 7018,
      "supported": 7019,
      "surviv": 7020,
      "ceo": 7021,
      "similarly": 7022,
      "suggested": 7023,
      "disappoint": 7024,
      "judgment": 7025,
      "miracle": 7026,
      "struggling": 7027,
      "1970s": 7028,
      "gathering": 7029,
      "shocked": 7030,
      "tribe": 7031,
      "additional": 7032,
      "analyze": 7033,
      "diagnosed": 7034,
      "pursue": 7035,
      "dialogue": 7036,
      "prosth": 7037,
      "colonies": 7038,
      "refugee": 7039,
      "nurse": 7040,
      "ensure": 7041,
      "administration": 7042,
      "astonishing": 7043,
      "refriger": 7044,
      "biodiversity": 7045,
      "wheelchair": 7046,
      "bureau": 7047,
      "bizar": 7048,
      "cig": 7049,
      "hind": 7050,
      "nerve": 7051,
      "tear": 7052,
      "##rome": 7053,
      "##yard": 7054,
      "##nders": 7055,
      "##asy": 7056,
      "##othing": 7057,
      "stun": 7058,
      "whatso": 7059,
      "trash": 7060,
      "upd": 7061,
      "##emen": 7062,
      "##izer": 7063,
      "bucks": 7064,
      "realizing": 7065,
      "offs": 7066,
      "basket": 7067,
      "sciences": 7068,
      "highlight": 7069,
      "elite": 7070,
      "informed": 7071,
      "homework": 7072,
      "##inson": 7073,
      "radically": 7074,
      "expectancy": 7075,
      "nonp": 7076,
      "explaining": 7077,
      "robotics": 7078,
      "keyboard": 7079,
      "##apping": 7080,
      "photographed": 7081,
      "entering": 7082,
      "competitive": 7083,
      "arrive": 7084,
      "domain": 7085,
      "immense": 7086,
      "buried": 7087,
      "luckily": 7088,
      "translation": 7089,
      "1980s": 7090,
      "tunnel": 7091,
      "victim": 7092,
      "nutrition": 7093,
      "##ecd": 7094,
      "russian": 7095,
      "skelet": 7096,
      "climbing": 7097,
      "routine": 7098,
      "fabulous": 7099,
      "adopted": 7100,
      "senior": 7101,
      "refugees": 7102,
      "dragon": 7103,
      "perceive": 7104,
      "lawyer": 7105,
      "instructions": 7106,
      "merely": 7107,
      "exponential": 7108,
      "stroke": 7109,
      "jesus": 7110,
      "bizarre": 7111,
      "whatsoever": 7112,
      "ak": 7113,
      "award": 7114,
      "bin": 7115,
      "lamp": 7116,
      "rats": 7117,
      "tut": 7118,
      "##tical": 7119,
      "##ups": 7120,
      "##vest": 7121,
      "##oning": 7122,
      "##oran": 7123,
      "##itous": 7124,
      "##ari": 7125,
      "mood": 7126,
      "shore": 7127,
      "neck": 7128,
      "convert": 7129,
      "seeking": 7130,
      "febru": 7131,
      "arist": 7132,
      "bug": 7133,
      "##iban": 7134,
      "flows": 7135,
      "mining": 7136,
      "completed": 7137,
      "serving": 7138,
      "publ": 7139,
      "sixth": 7140,
      "confused": 7141,
      "proportion": 7142,
      "successfully": 7143,
      "deliber": 7144,
      "fastest": 7145,
      "##liest": 7146,
      "exception": 7147,
      "leaf": 7148,
      "cartoons": 7149,
      "methane": 7150,
      "rolling": 7151,
      "fraction": 7152,
      "daughters": 7153,
      "physician": 7154,
      "demonstration": 7155,
      "attractive": 7156,
      "garage": 7157,
      "institutional": 7158,
      "volunteer": 7159,
      "##esthes": 7160,
      "dolphin": 7161,
      "shifting": 7162,
      "greek": 7163,
      "lawyers": 7164,
      "intrig": 7165,
      "hypothesis": 7166,
      "genetically": 7167,
      "discipline": 7168,
      "##rofit": 7169,
      "contemporary": 7170,
      "fragile": 7171,
      "squee": 7172,
      "uncertainty": 7173,
      "derek": 7174,
      "cambridge": 7175,
      "parliament": 7176,
      "february": 7177,
      "bust": 7178,
      "bats": 7179,
      "bored": 7180,
      "cous": 7181,
      "hen": 7182,
      "lone": 7183,
      "om": 7184,
      "pale": 7185,
      "tes": 7186,
      "wider": 7187,
      "##mates": 7188,
      "##rid": 7189,
      "##rill": 7190,
      "##gi": 7191,
      "##vi": 7192,
      "##eda": 7193,
      "##eday": 7194,
      "##isy": 7195,
      "##etics": 7196,
      "sel": 7197,
      "ships": 7198,
      "someday": 7199,
      "decent": 7200,
      "##ifice": 7201,
      "triv": 7202,
      "sup": 7203,
      "##agos": 7204,
      "amy": 7205,
      "armed": 7206,
      "scott": 7207,
      "county": 7208,
      "##aze": 7209,
      "capabilities": 7210,
      "joe": 7211,
      "curric": 7212,
      "profile": 7213,
      "secrets": 7214,
      "norway": 7215,
      "innocent": 7216,
      "invested": 7217,
      "strongly": 7218,
      "description": 7219,
      "choosing": 7220,
      "suffered": 7221,
      "terrorist": 7222,
      "representation": 7223,
      "threats": 7224,
      "authorities": 7225,
      "infection": 7226,
      "prepare": 7227,
      "skeleton": 7228,
      "synthes": 7229,
      "fortunate": 7230,
      "matrix": 7231,
      "accomplish": 7232,
      "pharmaceutical": 7233,
      "grandparent": 7234,
      "].": 7235,
      "dys": 7236,
      "dumb": 7237,
      "gate": 7238,
      "lap": 7239,
      "rivers": 7240,
      "##oying": 7241,
      "##hr": 7242,
      "##uity": 7243,
      "##rical": 7244,
      "##cut": 7245,
      "##wr": 7246,
      "##ania": 7247,
      "##organ": 7248,
      "##asters": 7249,
      "##icious": 7250,
      "##sey": 7251,
      "stake": 7252,
      "##urg": 7253,
      "##opath": 7254,
      "sew": 7255,
      "orph": 7256,
      "##umes": 7257,
      "compelling": 7258,
      "loves": 7259,
      "chances": 7260,
      "simulation": 7261,
      "articles": 7262,
      "stranger": 7263,
      "extinction": 7264,
      "grace": 7265,
      "marry": 7266,
      "distingu": 7267,
      "weeke": 7268,
      "remembered": 7269,
      "restore": 7270,
      "labs": 7271,
      "soup": 7272,
      "expecting": 7273,
      "approx": 7274,
      "tempt": 7275,
      "breaks": 7276,
      "staying": 7277,
      "civic": 7278,
      "request": 7279,
      "beneath": 7280,
      "index": 7281,
      "closing": 7282,
      "printed": 7283,
      "homo": 7284,
      "microbial": 7285,
      "mixed": 7286,
      "tumors": 7287,
      "guns": 7288,
      "intuition": 7289,
      "replicate": 7290,
      "negoti": 7291,
      "nurt": 7292,
      "december": 7293,
      "conservative": 7294,
      "fits": 7295,
      "lord": 7296,
      "vit": 7297,
      "##ras": 7298,
      "##dam": 7299,
      "inhab": 7300,
      "rehab": 7301,
      "##stone": 7302,
      "##opic": 7303,
      "gore": 7304,
      "canopy": 7305,
      "shout": 7306,
      "shots": 7307,
      "comedy": 7308,
      "##raph": 7309,
      "chop": 7310,
      "##ilize": 7311,
      "spons": 7312,
      "spont": 7313,
      "enabled": 7314,
      "unable": 7315,
      "uniform": 7316,
      "leon": 7317,
      "leather": 7318,
      "loving": 7319,
      "##otherap": 7320,
      "##phere": 7321,
      "##pled": 7322,
      "decor": 7323,
      "organizing": 7324,
      "forming": 7325,
      "membr": 7326,
      "located": 7327,
      "restrict": 7328,
      "defic": 7329,
      "##riers": 7330,
      "##rients": 7331,
      "affects": 7332,
      "covering": 7333,
      "experiencing": 7334,
      "portion": 7335,
      "magnitude": 7336,
      "detection": 7337,
      "palm": 7338,
      "##lson": 7339,
      "pigs": 7340,
      "taliban": 7341,
      "paradox": 7342,
      "poems": 7343,
      "garbage": 7344,
      "odds": 7345,
      "spray": 7346,
      "professionals": 7347,
      "tackle": 7348,
      "ownership": 7349,
      "scenario": 7350,
      "paralyzed": 7351,
      "unhapp": 7352,
      "hemisphere": 7353,
      "cotton": 7354,
      "enthusi": 7355,
      "beijing": 7356,
      "cake": 7357,
      "dub": 7358,
      "eric": 7359,
      "iv": 7360,
      "jet": 7361,
      "loo": 7362,
      "mike": 7363,
      "ram": 7364,
      "rod": 7365,
      "wand": 7366,
      "##bling": 7367,
      "##kins": 7368,
      "##front": 7369,
      "##ann": 7370,
      "##urable": 7371,
      "chips": 7372,
      "##unction": 7373,
      "enables": 7374,
      "##emics": 7375,
      "pride": 7376,
      "aggreg": 7377,
      "twist": 7378,
      "dism": 7379,
      "##seless": 7380,
      "deserve": 7381,
      "herit": 7382,
      "##angible": 7383,
      "foster": 7384,
      "remaining": 7385,
      "instantly": 7386,
      "schem": 7387,
      "insist": 7388,
      "highway": 7389,
      "subway": 7390,
      "entrop": 7391,
      "woke": 7392,
      "addict": 7393,
      "charl": 7394,
      "charges": 7395,
      "##nostic": 7396,
      "musician": 7397,
      "brook": 7398,
      "demands": 7399,
      "demographic": 7400,
      "occurs": 7401,
      "traditions": 7402,
      "improved": 7403,
      "included": 7404,
      "silver": 7405,
      "fears": 7406,
      "observe": 7407,
      "reducing": 7408,
      "empire": 7409,
      "assumption": 7410,
      "homeless": 7411,
      "jumped": 7412,
      "optimism": 7413,
      "physicists": 7414,
      "officer": 7415,
      "widely": 7416,
      "cruel": 7417,
      "profoundly": 7418,
      "engineered": 7419,
      "athe": 7420,
      "shrink": 7421,
      "##flies": 7422,
      "frustrated": 7423,
      "glamorous": 7424,
      "august": 7425,
      "portrait": 7426,
      "orchestra": 7427,
      "tsun": 7428,
      "pandemic": 7429,
      "##otechn": 7430,
      "dopamine": 7431,
      "trajectory": 7432,
      "simultaneously": 7433,
      "],": 7434,
      "dy": 7435,
      "dies": 7436,
      "dile": 7437,
      "diving": 7438,
      "file": 7439,
      "gaps": 7440,
      "hors": 7441,
      "ib": 7442,
      "jar": 7443,
      "kb": 7444,
      "kar": 7445,
      "pairs": 7446,
      "##eon": 7447,
      "##lers": 7448,
      "##bul": 7449,
      "##bled": 7450,
      "##reced": 7451,
      "##onald": 7452,
      "##ora": 7453,
      "##orus": 7454,
      "infer": 7455,
      "bend": 7456,
      "recess": 7457,
      "##ctu": 7458,
      "forb": 7459,
      "##adays": 7460,
      "shipping": 7461,
      "comments": 7462,
      "peoples": 7463,
      "nowadays": 7464,
      "outer": 7465,
      "intensive": 7466,
      "unem": 7467,
      "interf": 7468,
      "phant": 7469,
      "indo": 7470,
      "brun": 7471,
      "incor": 7472,
      "drone": 7473,
      "crop": 7474,
      "meanwhile": 7475,
      "holy": 7476,
      "preserve": 7477,
      "valid": 7478,
      "socially": 7479,
      "proto": 7480,
      "##otted": 7481,
      "steal": 7482,
      "investing": 7483,
      "footage": 7484,
      "survived": 7485,
      "approaches": 7486,
      "printer": 7487,
      "combat": 7488,
      "facilities": 7489,
      "tracks": 7490,
      "reactions": 7491,
      "flowing": 7492,
      "errors": 7493,
      "tendency": 7494,
      "detailed": 7495,
      "damn": 7496,
      "strategic": 7497,
      "burned": 7498,
      "influenced": 7499,
      "susp": 7500,
      "wealthy": 7501,
      "substance": 7502,
      "categories": 7503,
      "unpreced": 7504,
      "cosmic": 7505,
      "ticket": 7506,
      "conducted": 7507,
      "qualities": 7508,
      "established": 7509,
      "comparison": 7510,
      "interpretation": 7511,
      "dutch": 7512,
      "initiative": 7513,
      "bronx": 7514,
      "curriculum": 7515,
      "unprecedented": 7516,
      "dung": 7517,
      "gi": 7518,
      "mud": 7519,
      "rays": 7520,
      "tie": 7521,
      "##iences": 7522,
      "##ship": 7523,
      "##list": 7524,
      "##lings": 7525,
      "##bing": 7526,
      "##fast": 7527,
      "##ini": 7528,
      "##inarily": 7529,
      "##ata": 7530,
      "##esign": 7531,
      "butter": 7532,
      "##aded": 7533,
      "orb": 7534,
      "convey": 7535,
      "tends": 7536,
      "enlight": 7537,
      "##agen": 7538,
      "export": 7539,
      "clothing": 7540,
      "gotta": 7541,
      "channels": 7542,
      "accent": 7543,
      "synd": 7544,
      "blo": 7545,
      "brows": 7546,
      "counting": 7547,
      "factories": 7548,
      "asks": 7549,
      "engines": 7550,
      "extension": 7551,
      "sketch": 7552,
      "mindset": 7553,
      "distract": 7554,
      "profits": 7555,
      "morality": 7556,
      "infl": 7557,
      "continuing": 7558,
      "excit": 7559,
      "kills": 7560,
      "trains": 7561,
      "harbor": 7562,
      "bottles": 7563,
      "supporting": 7564,
      "explains": 7565,
      "improving": 7566,
      "urge": 7567,
      "females": 7568,
      "delivery": 7569,
      "graphics": 7570,
      "significantly": 7571,
      "expertise": 7572,
      "suspe": 7573,
      "reminds": 7574,
      "nutrients": 7575,
      "gathered": 7576,
      "airplanes": 7577,
      "restaurants": 7578,
      "substant": 7579,
      "insights": 7580,
      "maker": 7581,
      "rubber": 7582,
      "contrad": 7583,
      "contrary": 7584,
      "genetics": 7585,
      "adventure": 7586,
      "neutral": 7587,
      "correspo": 7588,
      "stereoty": 7589,
      "scholars": 7590,
      "aggressive": 7591,
      "downt": 7592,
      "grandparents": 7593,
      "dilem": 7594,
      "unemploy": 7595,
      "29": 7596,
      "bot": 7597,
      "boun": 7598,
      "cree": 7599,
      "dressed": 7600,
      "gear": 7601,
      "ja": 7602,
      "jose": 7603,
      "lions": 7604,
      "rick": 7605,
      "rape": 7606,
      "tune": 7607,
      "uh": 7608,
      "##maker": 7609,
      "##rich": 7610,
      "##car": 7611,
      "##bie": 7612,
      "##down": 7613,
      "##30": 7614,
      "toss": 7615,
      "##omp": 7616,
      "beating": 7617,
      "##road": 7618,
      "##ading": 7619,
      "deck": 7620,
      "##umble": 7621,
      "mapping": 7622,
      "howard": 7623,
      "intim": 7624,
      "interrupt": 7625,
      "arth": 7626,
      "disability": 7627,
      "impression": 7628,
      "acou": 7629,
      "##quis": 7630,
      "indig": 7631,
      "##icks": 7632,
      "incl": 7633,
      "drones": 7634,
      "remained": 7635,
      "courses": 7636,
      "##licit": 7637,
      "strike": 7638,
      "recall": 7639,
      "computation": 7640,
      "healthier": 7641,
      "structural": 7642,
      "investors": 7643,
      "medication": 7644,
      "arrange": 7645,
      "parks": 7646,
      "fluores": 7647,
      "ethnic": 7648,
      "accounts": 7649,
      "threatened": 7650,
      "purposes": 7651,
      "broadcast": 7652,
      "halluc": 7653,
      "journalists": 7654,
      "tongue": 7655,
      "blogs": 7656,
      "1960": 7657,
      "customer": 7658,
      "academy": 7659,
      "gentleman": 7660,
      "reinvent": 7661,
      "pedest": 7662,
      "analogy": 7663,
      "alexander": 7664,
      "spanish": 7665,
      "rituals": 7666,
      "obstacles": 7667,
      "explosion": 7668,
      "sacrifice": 7669,
      "saharan": 7670,
      "cigaret": 7671,
      "##otherapy": 7672,
      "fest": 7673,
      "jam": 7674,
      "pause": 7675,
      "sna": 7676,
      "##sa": 7677,
      "##east": 7678,
      "##oen": 7679,
      "##aid": 7680,
      "##aving": 7681,
      "##power": 7682,
      "##xual": 7683,
      "##war": 7684,
      "thus": 7685,
      "##ati": 7686,
      "##atar": 7687,
      "recept": 7688,
      "##olit": 7689,
      "shit": 7690,
      "spain": 7691,
      "##allow": 7692,
      "##oded": 7693,
      "upside": 7694,
      "ads": 7695,
      "synch": 7696,
      "genu": 7697,
      "drown": 7698,
      "##athan": 7699,
      "colored": 7700,
      "reliable": 7701,
      "transcend": 7702,
      "slime": 7703,
      "pointing": 7704,
      "believes": 7705,
      "crew": 7706,
      "redesign": 7707,
      "camps": 7708,
      "signature": 7709,
      "researcher": 7710,
      "classical": 7711,
      "nights": 7712,
      "microph": 7713,
      "revol": 7714,
      "motors": 7715,
      "eaten": 7716,
      "versions": 7717,
      "purple": 7718,
      "drawings": 7719,
      "spreads": 7720,
      "screw": 7721,
      "peaceful": 7722,
      "compassionate": 7723,
      "dawn": 7724,
      "2011": 7725,
      "wheat": 7726,
      "despair": 7727,
      "glasses": 7728,
      "association": 7729,
      "honestly": 7730,
      "classrooms": 7731,
      "previously": 7732,
      "stimul": 7733,
      "saudi": 7734,
      "ratio": 7735,
      "ipod": 7736,
      "subsid": 7737,
      "column": 7738,
      "impressive": 7739,
      "adapted": 7740,
      "passenger": 7741,
      "vietnam": 7742,
      "ubiqu": 7743,
      "currency": 7744,
      "nonprofit": 7745,
      "entropy": 7746,
      "phantom": 7747,
      "cows": 7748,
      "germ": 7749,
      "jazz": 7750,
      "ner": 7751,
      "piz": 7752,
      "patch": 7753,
      "um": 7754,
      "zeal": 7755,
      "##ties": 7756,
      "##cain": 7757,
      "##born": 7758,
      "##des": 7759,
      "##kward": 7760,
      "italian": 7761,
      "ongoing": 7762,
      "stability": 7763,
      "anno": 7764,
      "##olic": 7765,
      "shan": 7766,
      "neoc": 7767,
      "##umin": 7768,
      "align": 7769,
      "upload": 7770,
      "manual": 7771,
      "percept": 7772,
      "##ague": 7773,
      "amate": 7774,
      "newton": 7775,
      "resem": 7776,
      "##ipts": 7777,
      "indians": 7778,
      "brid": 7779,
      "bond": 7780,
      "endanger": 7781,
      "planes": 7782,
      "farms": 7783,
      "subur": 7784,
      "register": 7785,
      "redwood": 7786,
      "addiction": 7787,
      "connects": 7788,
      "passive": 7789,
      "badly": 7790,
      "propag": 7791,
      "continents": 7792,
      "viral": 7793,
      "terribly": 7794,
      "terrifying": 7795,
      "harness": 7796,
      "editor": 7797,
      "radi": 7798,
      "barrier": 7799,
      "performed": 7800,
      "nearby": 7801,
      "approaching": 7802,
      "unfold": 7803,
      "religions": 7804,
      "ecological": 7805,
      "awkward": 7806,
      "bedroom": 7807,
      "burden": 7808,
      "closest": 7809,
      "mobility": 7810,
      "annual": 7811,
      "achievement": 7812,
      "straightfor": 7813,
      "catching": 7814,
      "graduated": 7815,
      "scanner": 7816,
      "alternatives": 7817,
      "teenage": 7818,
      "corporations": 7819,
      "altru": 7820,
      "gallery": 7821,
      "incentive": 7822,
      "vegetables": 7823,
      "reconstruct": 7824,
      "chimpanzee": 7825,
      "1950s": 7826,
      ".'\"": 7827,
      "glamour": 7828,
      "mathematicians": 7829,
      "arrested": 7830,
      "tropical": 7831,
      "palestin": 7832,
      "monitoring": 7833,
      "tubes": 7834,
      "tragic": 7835,
      "ngos": 7836,
      "##otechnology": 7837,
      "excitement": 7838,
      "straightforward": 7839,
      "fancy": 7840,
      "hob": 7841,
      "jih": 7842,
      "ly": 7843,
      "vel": 7844,
      "voy": 7845,
      "wires": 7846,
      "##field": 7847,
      "##ingly": 7848,
      "##ani": 7849,
      "inex": 7850,
      "rethink": 7851,
      "habits": 7852,
      "##ctica": 7853,
      "asian": 7854,
      "moore": 7855,
      "nelson": 7856,
      "excess": 7857,
      "prol": 7858,
      "une": 7859,
      "##ghai": 7860,
      "manager": 7861,
      "managers": 7862,
      "ampl": 7863,
      "precious": 7864,
      "client": 7865,
      "discrim": 7866,
      "loan": 7867,
      "royal": 7868,
      "fox": 7869,
      "earliest": 7870,
      "##tending": 7871,
      "artic": 7872,
      "trace": 7873,
      "generous": 7874,
      "generating": 7875,
      "subt": 7876,
      "##neys": 7877,
      "freely": 7878,
      "winds": 7879,
      "delhi": 7880,
      "speaks": 7881,
      "psychologists": 7882,
      "lowest": 7883,
      "penn": 7884,
      "satur": 7885,
      "medicines": 7886,
      "prediction": 7887,
      "##adesh": 7888,
      "circuits": 7889,
      "fault": 7890,
      "divor": 7891,
      "magnific": 7892,
      "package": 7893,
      "2012": 7894,
      "appearance": 7895,
      "phenomena": 7896,
      "physicians": 7897,
      "applying": 7898,
      "philosopher": 7899,
      "tissues": 7900,
      "manufactur": 7901,
      "preval": 7902,
      "migr": 7903,
      "##burgh": 7904,
      "prostate": 7905,
      "sauce": 7906,
      "encouraged": 7907,
      "##working": 7908,
      "items": 7909,
      "collapsed": 7910,
      "luxury": 7911,
      "helicopter": 7912,
      "stomach": 7913,
      "antarctica": 7914,
      "phosphorus": 7915,
      "synchron": 7916,
      "genuine": 7917,
      "bind": 7918,
      "batt": 7919,
      "dating": 7920,
      "dough": 7921,
      "drew": 7922,
      "fbi": 7923,
      "hiding": 7924,
      "jung": 7925,
      "junk": 7926,
      "josh": 7927,
      "lam": 7928,
      "nap": 7929,
      "ow": 7930,
      "rb": 7931,
      "ros": 7932,
      "rib": 7933,
      "tatt": 7934,
      "##reh": 7935,
      "##alf": 7936,
      "##isons": 7937,
      "##icial": 7938,
      "##stage": 7939,
      "sty": 7940,
      "stor": 7941,
      "stones": 7942,
      "anat": 7943,
      "##roach": 7944,
      "##ilty": 7945,
      "##umines": 7946,
      "knife": 7947,
      "seemingly": 7948,
      "ups": 7949,
      "safer": 7950,
      "sunday": 7951,
      "##asty": 7952,
      "##astics": 7953,
      "workforce": 7954,
      "interior": 7955,
      "pockets": 7956,
      "indones": 7957,
      "columb": 7958,
      "##cont": 7959,
      "insul": 7960,
      "insane": 7961,
      "traits": 7962,
      "192": 7963,
      "2050": 7964,
      "grave": 7965,
      "ski": 7966,
      "redef": 7967,
      "propose": 7968,
      "audiences": 7969,
      "##aneous": 7970,
      "temporary": 7971,
      "straw": 7972,
      "replaced": 7973,
      "compete": 7974,
      "affecting": 7975,
      "raped": 7976,
      "magnet": 7977,
      "landscapes": 7978,
      "wheels": 7979,
      "prisoners": 7980,
      "unconscious": 7981,
      "interviewed": 7982,
      "nuts": 7983,
      "independence": 7984,
      "teenager": 7985,
      "defend": 7986,
      "pursuit": 7987,
      "blowing": 7988,
      "perceived": 7989,
      "branches": 7990,
      "regardless": 7991,
      "encouraging": 7992,
      "horizon": 7993,
      "tanz": 7994,
      "navigate": 7995,
      "asteroid": 7996,
      "buddh": 7997,
      "##itzer": 7998,
      "guarantee": 7999
    }
  }
}